#pragma once

#ifdef __has_attribute
#define HAVE_ATTRIBUTE(x) __has_attribute(x)
#else
#define HAVE_ATTRIBUTE(x) 0
#endif
#if HAVE_ATTRIBUTE(aligned) || (defined(__GNUC__) && !defined(__clang__))
#define DATA_ALIGN_ATTRIBUTE __attribute__((aligned(4)))
#else
#define DATA_ALIGN_ATTRIBUTE
#endif

// automatically configure network
#define TF_NUM_INPUTS 7
#define TF_NUM_OUTPUTS 1
#define TF_NUM_OPS 1
#define TF_OP_FULLYCONNECTED


// sample data
float x0[7] = {0.28367346939f, 0.71428571429f, 0.91304347826f, 0.04109589041f, 0.09208103131f, 0.85299455535f, 0.80449090205f};


/** model size = 7660 bytes **/
const unsigned char modelANN[] DATA_ALIGN_ATTRIBUTE = { 0x1c, 0x00, 0x00, 0x00, 0x54, 0x46, 0x4c, 0x33, 0x14, 0x00, 0x20, 0x00, 0x1c, 0x00, 0x18, 0x00, 0x14, 0x00, 0x10, 0x00, 0x0c, 0x00, 0x00, 0x00, 0x08, 0x00, 0x04, 0x00, 0x14, 0x00, 0x00, 0x00, 0x1c, 0x00, 0x00, 0x00, 0x98, 0x00, 0x00, 0x00, 0xf0, 0x00, 0x00, 0x00, 0x94, 0x18, 0x00, 0x00, 0xa4, 0x18, 0x00, 0x00, 0x98, 0x1d, 0x00, 0x00, 0x03, 0x00, 0x00, 0x00, 0x01, 0x00, 0x00, 0x00, 0x10, 0x00, 0x00, 0x00, 0x00, 0x00, 0x0a, 0x00, 0x10, 0x00, 0x0c, 0x00, 0x08, 0x00, 0x04, 0x00, 0x0a, 0x00, 0x00, 0x00, 0x0c, 0x00, 0x00, 0x00, 0x1c, 0x00, 0x00, 0x00, 0x3c, 0x00, 0x00, 0x00, 0x0f, 0x00, 0x00, 0x00, 0x73, 0x65, 0x72, 0x76, 0x69, 0x6e, 0x67, 0x5f, 0x64, 0x65, 0x66, 0x61, 0x75, 0x6c, 0x74, 0x00, 0x01, 0x00, 0x00, 0x00, 0x04, 0x00, 0x00, 0x00, 0x90, 0xff, 0xff, 0xff, 0x09, 0x00, 0x00, 0x00, 0x04, 0x00, 0x00, 0x00, 0x08, 0x00, 0x00, 0x00, 0x6f, 0x75, 0x74, 0x70, 0x75, 0x74, 0x5f, 0x30, 0x00, 0x00, 0x00, 0x00, 0x01, 0x00, 0x00, 0x00, 0x04, 0x00, 0x00, 0x00, 0x4a, 0xe8, 0xff, 0xff, 0x04, 0x00, 0x00, 0x00, 0x0f, 0x00, 0x00, 0x00, 0x6b, 0x65, 0x72, 0x61, 0x73, 0x5f, 0x74, 0x65, 0x6e, 0x73, 0x6f, 0x72, 0x5f, 0x34, 0x32, 0x00, 0x02, 0x00, 0x00, 0x00, 0x34, 0x00, 0x00, 0x00, 0x04, 0x00, 0x00, 0x00, 0xdc, 0xff, 0xff, 0xff, 0x0c, 0x00, 0x00, 0x00, 0x04, 0x00, 0x00, 0x00, 0x13, 0x00, 0x00, 0x00, 0x43, 0x4f, 0x4e, 0x56, 0x45, 0x52, 0x53, 0x49, 0x4f, 0x4e, 0x5f, 0x4d, 0x45, 0x54, 0x41, 0x44, 0x41, 0x54, 0x41, 0x00, 0x08, 0x00, 0x0c, 0x00, 0x08, 0x00, 0x04, 0x00, 0x08, 0x00, 0x00, 0x00, 0x0b, 0x00, 0x00, 0x00, 0x04, 0x00, 0x00, 0x00, 0x13, 0x00, 0x00, 0x00, 0x6d, 0x69, 0x6e, 0x5f, 0x72, 0x75, 0x6e, 0x74, 0x69, 0x6d, 0x65, 0x5f, 0x76, 0x65, 0x72, 0x73, 0x69, 0x6f, 0x6e, 0x00, 0x0d, 0x00, 0x00, 0x00, 0xa0, 0x17, 0x00, 0x00, 0x98, 0x17, 0x00, 0x00, 0x38, 0x17, 0x00, 0x00, 0x80, 0x07, 0x00, 0x00, 0x6c, 0x07, 0x00, 0x00, 0x0c, 0x07, 0x00, 0x00, 0x34, 0x06, 0x00, 0x00, 0xac, 0x00, 0x00, 0x00, 0xa4, 0x00, 0x00, 0x00, 0x9c, 0x00, 0x00, 0x00, 0x94, 0x00, 0x00, 0x00, 0x74, 0x00, 0x00, 0x00, 0x04, 0x00, 0x00, 0x00, 0xfa, 0xe8, 0xff, 0xff, 0x04, 0x00, 0x00, 0x00, 0x60, 0x00, 0x00, 0x00, 0x10, 0x00, 0x00, 0x00, 0x00, 0x00, 0x00, 0x00, 0x08, 0x00, 0x0e, 0x00, 0x08, 0x00, 0x04, 0x00, 0x08, 0x00, 0x00, 0x00, 0x10, 0x00, 0x00, 0x00, 0x24, 0x00, 0x00, 0x00, 0x00, 0x00, 0x06, 0x00, 0x08, 0x00, 0x04, 0x00, 0x06, 0x00, 0x00, 0x00, 0x04, 0x00, 0x00, 0x00, 0x00, 0x00, 0x00, 0x00, 0x0c, 0x00, 0x18, 0x00, 0x14, 0x00, 0x10, 0x00, 0x0c, 0x00, 0x04, 0x00, 0x0c, 0x00, 0x00, 0x00, 0x9d, 0x9a, 0xaa, 0x06, 0x99, 0x1d, 0x02, 0xda, 0x02, 0x00, 0x00, 0x00, 0x02, 0x00, 0x00, 0x00, 0x04, 0x00, 0x00, 0x00, 0x06, 0x00, 0x00, 0x00, 0x32, 0x2e, 0x31, 0x38, 0x2e, 0x30, 0x00, 0x00, 0x66, 0xe9, 0xff, 0xff, 0x04, 0x00, 0x00, 0x00, 0x10, 0x00, 0x00, 0x00, 0x31, 0x2e, 0x35, 0x2e, 0x30, 0x00, 0x00, 0x00, 0x00, 0x00, 0x00, 0x00, 0x00, 0x00, 0x00, 0x00, 0x48, 0xe4, 0xff, 0xff, 0x4c, 0xe4, 0xff, 0xff, 0x50, 0xe4, 0xff, 0xff, 0x8e, 0xe9, 0xff, 0xff, 0x04, 0x00, 0x00, 0x00, 0x78, 0x05, 0x00, 0x00, 0x6e, 0xe3, 0xe5, 0xbd, 0xe2, 0x9a, 0x09, 0x3e, 0xce, 0x66, 0xac, 0x3e, 0xd9, 0x95, 0x8b, 0x3e, 0x1d, 0xa9, 0x93, 0x3c, 0xe7, 0x2e, 0x43, 0xbe, 0x5d, 0xa4, 0x74, 0xbe, 0xeb, 0xc9, 0x8f, 0x3e, 0x6a, 0x5b, 0x00, 0xbe, 0x5b, 0xac, 0x36, 0x3d, 0xd7, 0xb1, 0x86, 0xbd, 0xd5, 0x8e, 0xb6, 0xbc, 0x59, 0x95, 0xa1, 0x3d, 0x09, 0x29, 0x93, 0xbc, 0x3a, 0x58, 0x7f, 0x3d, 0xde, 0xf2, 0x14, 0xbc, 0xdb, 0x80, 0xdf, 0xbc, 0xfc, 0xdb, 0x32, 0x3c, 0x1a, 0x99, 0x78, 0x3e, 0xbf, 0x22, 0x73, 0x3e, 0x75, 0x8c, 0x02, 0xbe, 0xfa, 0x59, 0x85, 0xbe, 0x9f, 0x77, 0x98, 0xbd, 0x52, 0xae, 0xca, 0xbd, 0xa2, 0xaa, 0x8b, 0xbe, 0x95, 0xc0, 0x8b, 0x3d, 0x5b, 0x04, 0x78, 0x3e, 0xde, 0xf6, 0xdd, 0xbc, 0xc6, 0x4a, 0x7e, 0xbe, 0x5b, 0x5f, 0x0b, 0x3b, 0x93, 0xb8, 0x20, 0x3e, 0xc0, 0x47, 0x27, 0x3e, 0x72, 0xe3, 0x44, 0xbe, 0xe5, 0x74, 0x7b, 0x3e, 0x90, 0x21, 0x60, 0xbc, 0xc6, 0x02, 0x7e, 0x3e, 0x65, 0x6a, 0x96, 0xbe, 0xba, 0x7f, 0xdd, 0xbd, 0xc6, 0xe0, 0x68, 0xbe, 0xe0, 0xba, 0xd4, 0xbc, 0xe0, 0x9e, 0x2f, 0x3e, 0x80, 0x17, 0xeb, 0x3d, 0x87, 0x96, 0x8d, 0x3e, 0x6d, 0x5d, 0x0a, 0xbd, 0xf0, 0xce, 0x8b, 0xbe, 0x6b, 0xdd, 0x29, 0xbe, 0x2d, 0x0d, 0x88, 0x3e, 0x83, 0xc2, 0xff, 0x3d, 0x36, 0xe3, 0x83, 0xbe, 0xf0, 0x0d, 0x33, 0x3d, 0x27, 0x76, 0x40, 0xbe, 0xc0, 0x9f, 0x35, 0xbd, 0xd8, 0xfb, 0xac, 0x3d, 0x38, 0x66, 0x8c, 0xbd, 0xe2, 0xf3, 0x71, 0x3e, 0x40, 0x98, 0x3b, 0xbe, 0xc2, 0x3a, 0x2d, 0xbd, 0x85, 0x99, 0x8a, 0x3e, 0x87, 0x10, 0x8b, 0xbe, 0xa2, 0x7b, 0x77, 0xbe, 0x7f, 0x5a, 0x81, 0x3e, 0x48, 0x7d, 0x82, 0x3e, 0x1a, 0xb1, 0x59, 0xbd, 0xf4, 0x21, 0xfb, 0x3d, 0x5e, 0x33, 0x6b, 0x3e, 0x36, 0x5b, 0xb0, 0x3c, 0xa3, 0x71, 0x45, 0x3e, 0xa3, 0x34, 0x14, 0xbd, 0xaa, 0xbd, 0x24, 0xbe, 0x47, 0xd2, 0xbc, 0x3d, 0xe7, 0xb7, 0x7d, 0xbd, 0x24, 0x2b, 0x63, 0xbe, 0xc2, 0x8d, 0xae, 0x3d, 0xe7, 0xad, 0x25, 0x3e, 0x6b, 0x81, 0x66, 0x3e, 0x69, 0x02, 0x4c, 0x3e, 0x85, 0x8e, 0x02, 0xbe, 0x61, 0xa3, 0xc0, 0x3d, 0xf5, 0xe4, 0x0c, 0x3e, 0x79, 0x1c, 0x84, 0x3e, 0x30, 0x35, 0x4c, 0x3e, 0x29, 0x88, 0x10, 0x3e, 0xb4, 0x59, 0x94, 0xbe, 0xda, 0xd3, 0x66, 0x3e, 0xae, 0xc1, 0x3d, 0x3e, 0xef, 0x71, 0xe6, 0xbc, 0xd3, 0x98, 0x62, 0xbd, 0x5d, 0x77, 0xfa, 0xbd, 0x3a, 0x0f, 0x08, 0x3d, 0x3b, 0xb3, 0x2d, 0x3d, 0x11, 0x26, 0x18, 0xbd, 0x21, 0x78, 0x9b, 0x3e, 0x38, 0xa5, 0xa7, 0xbd, 0x10, 0xa4, 0x9e, 0xbe, 0x9d, 0x2b, 0x9b, 0x3e, 0x8c, 0xc8, 0xde, 0xbd, 0x28, 0x8b, 0xc7, 0xbd, 0x14, 0x50, 0x9c, 0xbe, 0x3e, 0x9e, 0xb9, 0x3d, 0x69, 0x77, 0xcf, 0x3d, 0xaa, 0xb5, 0xf2, 0xbd, 0xc5, 0x85, 0x4f, 0xbd, 0x92, 0x6a, 0x85, 0x3d, 0xfc, 0x7c, 0xb0, 0x3d, 0xe2, 0xaf, 0x40, 0xbe, 0x32, 0x25, 0x9b, 0xbd, 0xe8, 0x65, 0x61, 0x3d, 0x52, 0xb8, 0x36, 0x3e, 0x50, 0x2c, 0x99, 0xbc, 0x2e, 0x3e, 0x5b, 0xbe, 0x49, 0xa7, 0x72, 0xbe, 0x66, 0xa1, 0xe2, 0xbd, 0xb7, 0xfc, 0x57, 0xbe, 0x3b, 0x29, 0xca, 0x3d, 0xd8, 0x2d, 0x33, 0x3e, 0x65, 0x6d, 0x4c, 0x3e, 0x31, 0x1b, 0x56, 0xbe, 0xd7, 0x23, 0xc4, 0xbd, 0xd6, 0xa1, 0xfa, 0x3d, 0x41, 0x47, 0x3a, 0xbe, 0xf4, 0x3b, 0x57, 0x3e, 0x6d, 0x17, 0x82, 0x3e, 0xb4, 0x00, 0x48, 0x3e, 0x9d, 0x27, 0x90, 0x3e, 0x59, 0x28, 0x27, 0x3e, 0xdd, 0xc7, 0x9b, 0xbe, 0xc7, 0x71, 0x9f, 0x3e, 0x21, 0x7b, 0xfb, 0xbb, 0x42, 0xa5, 0x45, 0x3e, 0x6e, 0x72, 0x30, 0xbd, 0xc4, 0x24, 0x87, 0xbe, 0x99, 0x8f, 0x7b, 0x3e, 0x4c, 0xfc, 0x03, 0xbe, 0x8c, 0xde, 0x1e, 0xbe, 0xbb, 0x1e, 0x7c, 0x3e, 0x32, 0xe3, 0x38, 0xbe, 0x65, 0x0e, 0x40, 0xbe, 0x79, 0x4e, 0x53, 0xbe, 0x71, 0x77, 0xa6, 0x3e, 0xe4, 0xc6, 0x66, 0x3c, 0x4e, 0x79, 0x93, 0x3e, 0x9f, 0x8c, 0xa1, 0xbe, 0x7f, 0x4e, 0x5f, 0xbd, 0x20, 0xc8, 0x1c, 0x3c, 0x39, 0x82, 0x19, 0xbd, 0xc7, 0x79, 0x89, 0xbe, 0xaf, 0x4f, 0x34, 0xbe, 0x9e, 0xc2, 0x33, 0xbe, 0xb3, 0xb7, 0xd2, 0x3c, 0xaa, 0x90, 0x75, 0xbe, 0x4e, 0xa6, 0x08, 0xbe, 0xdf, 0x6c, 0xa8, 0xbe, 0xa8, 0x51, 0x60, 0x3e, 0x80, 0xa5, 0x9c, 0x3e, 0x26, 0xa0, 0x84, 0xbe, 0x31, 0x6b, 0x14, 0x3c, 0x0c, 0x4a, 0x96, 0x3e, 0x8d, 0x1c, 0x2f, 0xbe, 0x43, 0x79, 0x43, 0x3e, 0x08, 0xa1, 0xa3, 0xbe, 0x3a, 0x09, 0xcb, 0xbc, 0xe2, 0xf5, 0xa7, 0xbd, 0x7c, 0x72, 0xd3, 0x3d, 0x67, 0x6a, 0x42, 0xbe, 0x60, 0xfc, 0x78, 0x3c, 0x00, 0x24, 0x25, 0xbb, 0xec, 0x10, 0x85, 0xbd, 0xa1, 0xbe, 0x04, 0xbe, 0xee, 0x99, 0x32, 0xbe, 0x34, 0xcd, 0x32, 0xbd, 0x34, 0x4a, 0xb1, 0xbc, 0xfb, 0xec, 0x80, 0xbe, 0xec, 0xa6, 0x67, 0x3e, 0x7a, 0xf3, 0x32, 0x3e, 0x2c, 0xe3, 0xfb, 0x3d, 0xe1, 0xf3, 0xb4, 0x3b, 0x8b, 0xd1, 0x65, 0xbe, 0x43, 0xe3, 0x81, 0x3e, 0x18, 0xb2, 0x48, 0xbe, 0x35, 0x47, 0xee, 0xbd, 0x2f, 0x52, 0x85, 0x3e, 0x3b, 0x02, 0xad, 0x3e, 0x49, 0x15, 0x8d, 0x3e, 0x24, 0x5c, 0xbc, 0x3d, 0x2a, 0x8a, 0x70, 0x3e, 0x08, 0xf6, 0x8e, 0xbe, 0xe0, 0xa0, 0xa5, 0xbd, 0xc1, 0xb3, 0xaf, 0x3d, 0x87, 0x4b, 0x96, 0xbe, 0x68, 0x57, 0x09, 0xbe, 0x3a, 0x86, 0x10, 0x3e, 0x32, 0x35, 0x50, 0x3e, 0xf2, 0x13, 0x07, 0xbe, 0x8f, 0x7a, 0x6e, 0xbe, 0xd5, 0x82, 0x93, 0x3d, 0xab, 0x74, 0x84, 0x3e, 0x2c, 0x01, 0x8b, 0xbd, 0xee, 0xba, 0x44, 0x3d, 0xc4, 0xc8, 0x0e, 0xbe, 0x06, 0xaf, 0x4c, 0xbe, 0x48, 0xec, 0xc9, 0xbd, 0xf8, 0xfe, 0x52, 0x3e, 0x7d, 0xa4, 0xea, 0x3d, 0x0f, 0xbc, 0x1f, 0x3e, 0xe5, 0x54, 0x52, 0x3e, 0x47, 0xff, 0x9a, 0x3e, 0x23, 0x89, 0x15, 0xbe, 0x62, 0xd4, 0x5f, 0x3b, 0x57, 0x0a, 0x21, 0x3e, 0x23, 0xfe, 0x09, 0x3e, 0xcb, 0xdb, 0x83, 0x3e, 0xd8, 0x0a, 0x7c, 0xbd, 0x98, 0x98, 0x89, 0xbd, 0x60, 0x0e, 0x57, 0xbd, 0xcd, 0xf5, 0x32, 0xbe, 0x98, 0x89, 0x13, 0xbd, 0x2c, 0xba, 0x81, 0xbe, 0xa0, 0x30, 0x95, 0xbc, 0x19, 0x53, 0x16, 0xbe, 0x34, 0xca, 0x74, 0x3e, 0xa2, 0xd1, 0xaf, 0xbd, 0xdd, 0xe2, 0x8a, 0xbd, 0xa9, 0xe2, 0x80, 0xbe, 0xb8, 0x41, 0x35, 0xbd, 0x54, 0xa7, 0x59, 0xbe, 0xca, 0x2d, 0xde, 0xbd, 0xbc, 0xd1, 0x1d, 0x3e, 0x08, 0x1d, 0x55, 0xbe, 0x5c, 0x82, 0x55, 0xbe, 0x5b, 0xf8, 0x07, 0xbe, 0xb0, 0x16, 0x8a, 0xbd, 0x19, 0xa5, 0x86, 0x3e, 0x49, 0x56, 0x85, 0xbe, 0x90, 0xd3, 0x0e, 0x3d, 0xd4, 0x33, 0xa7, 0x3d, 0xd0, 0x07, 0x2e, 0x3e, 0xe4, 0x74, 0x32, 0xbc, 0xeb, 0xd7, 0x91, 0xbe, 0xe8, 0x4e, 0x99, 0xbd, 0xfa, 0x62, 0x3c, 0x3e, 0x43, 0x1e, 0x25, 0xbd, 0x58, 0x2a, 0x46, 0xbe, 0x4c, 0x91, 0x60, 0xbe, 0xc4, 0x49, 0x65, 0xbe, 0x81, 0xc6, 0xb2, 0x3d, 0x7b, 0xa3, 0x98, 0xbe, 0xc7, 0x90, 0x07, 0xbe, 0x61, 0xb0, 0xa0, 0xbe, 0xd4, 0x9a, 0xbb, 0xbd, 0xc0, 0x78, 0x8d, 0xbd, 0x85, 0xfb, 0x90, 0xbe, 0x98, 0x6a, 0x59, 0xbe, 0x42, 0x41, 0x4f, 0xbe, 0x16, 0x88, 0x67, 0xbe, 0xd1, 0x3d, 0x51, 0x3e, 0x2b, 0xc9, 0xa1, 0xbe, 0x15, 0x5e, 0xa8, 0xbe, 0x63, 0x0d, 0x4b, 0x3e, 0x89, 0xdd, 0xe0, 0xbd, 0x05, 0x40, 0x90, 0xbe, 0xd3, 0xc8, 0x21, 0x3c, 0x94, 0xc0, 0x9f, 0xbc, 0x5b, 0x07, 0xd7, 0x3d, 0xf8, 0x2e, 0x17, 0x3e, 0x6f, 0x61, 0x55, 0x3e, 0x2e, 0x2c, 0x44, 0xbe, 0xa4, 0xbc, 0x0e, 0x3e, 0xe5, 0xbe, 0x7a, 0xbe, 0xa6, 0xa9, 0x03, 0x3e, 0xfe, 0xf4, 0x28, 0xbe, 0xbc, 0xfb, 0x9a, 0x3e, 0x41, 0x85, 0xec, 0x3d, 0x49, 0x55, 0x3d, 0x3d, 0x53, 0xd1, 0x22, 0x3e, 0x80, 0x4e, 0x2d, 0x3e, 0x46, 0x73, 0x55, 0x3e, 0xce, 0xc4, 0xbb, 0xbd, 0xeb, 0x40, 0x90, 0xbe, 0xbe, 0xfd, 0x3b, 0x3e, 0x27, 0xbb, 0x3c, 0xbe, 0x73, 0xf9, 0x3b, 0x3e, 0x78, 0x49, 0xec, 0x3d, 0x09, 0x9d, 0x7b, 0x3b, 0x49, 0x00, 0x1a, 0xbe, 0xbc, 0x21, 0xb8, 0x3d, 0x59, 0x94, 0x4c, 0xbe, 0x7f, 0x5a, 0xdf, 0xbd, 0xae, 0xfb, 0xa9, 0x3e, 0x6d, 0x90, 0xbd, 0xbd, 0x7e, 0x3b, 0x54, 0x3e, 0x17, 0x4f, 0x1b, 0xbe, 0x5a, 0xc3, 0x66, 0x3e, 0x56, 0x31, 0x31, 0xbe, 0xce, 0x2c, 0xa3, 0x3d, 0xaa, 0x43, 0x58, 0x3e, 0xcd, 0x2e, 0x05, 0xbd, 0xa6, 0xef, 0x4f, 0xbc, 0xda, 0x50, 0x4a, 0x3e, 0x80, 0x40, 0x24, 0xbe, 0xc9, 0xec, 0xbd, 0xbd, 0x8e, 0x40, 0x9f, 0x3e, 0x1e, 0xcb, 0xa0, 0xbd, 0x1c, 0x9a, 0x88, 0xbe, 0x27, 0x08, 0x21, 0xbe, 0x74, 0x82, 0x9f, 0x3d, 0x32, 0xd5, 0x39, 0xbe, 0x80, 0xeb, 0x66, 0xbd, 0x72, 0x27, 0x25, 0xbe, 0x18, 0x23, 0x14, 0x3e, 0xfc, 0xab, 0x83, 0x3e, 0x8d, 0x14, 0x76, 0xbe, 0x54, 0xe1, 0x8a, 0xbe, 0x64, 0x6d, 0xed, 0x3d, 0xc9, 0xa2, 0x41, 0xbe, 0x94, 0x5d, 0xe0, 0x3b, 0xd8, 0x6a, 0xa2, 0x3d, 0xc3, 0xa2, 0x88, 0x3c, 0xbd, 0x4c, 0xa3, 0x3e, 0xf5, 0xff, 0x50, 0xbe, 0x30, 0xb3, 0x95, 0x3e, 0x75, 0x28, 0xcf, 0x3d, 0x27, 0xd8, 0x8f, 0xbe, 0x90, 0xac, 0xc8, 0x3d, 0x1d, 0xa2, 0x8c, 0xbe, 0xc8, 0xda, 0xc1, 0x3d, 0x63, 0x41, 0x11, 0xbe, 0x56, 0xd2, 0x7d, 0xbe, 0x54, 0xb3, 0x18, 0x3e, 0xa3, 0x9d, 0x82, 0xbe, 0xd3, 0x93, 0x93, 0xbe, 0x17, 0xd4, 0x09, 0x3e, 0x03, 0xd0, 0x5a, 0x3e, 0x2a, 0xff, 0x8c, 0xbc, 0x53, 0x49, 0x6f, 0xbe, 0x00, 0x82, 0x2e, 0xbe, 0x8a, 0x90, 0x96, 0x3e, 0xe4, 0x4b, 0x5e, 0x3d, 0xcb, 0x87, 0xdb, 0xbd, 0x9b, 0x28, 0xb2, 0xbd, 0x86, 0x0d, 0x94, 0x3e, 0x6a, 0x3a, 0x5e, 0xbe, 0x00, 0xc7, 0x58, 0x3d, 0xce, 0x6e, 0x98, 0x3e, 0x43, 0xb4, 0x53, 0x3c, 0xf6, 0xae, 0x8b, 0x3e, 0x4d, 0xdf, 0x7e, 0xbe, 0xf5, 0x59, 0x32, 0xbe, 0x76, 0x0f, 0x87, 0xbd, 0x0b, 0x04, 0xd3, 0x3d, 0xd6, 0x97, 0x9c, 0xbe, 0x12, 0xef, 0xff, 0xff, 0x04, 0x00, 0x00, 0x00, 0xc8, 0x00, 0x00, 0x00, 0x42, 0x3e, 0xc4, 0x3c, 0xe3, 0x36, 0xc5, 0x3c, 0xb8, 0xed, 0x8c, 0x3b, 0xe9, 0xf2, 0xa5, 0x3c, 0x49, 0xed, 0x13, 0x3d, 0x00, 0x00, 0x00, 0x00, 0x11, 0x23, 0xe7, 0xbc, 0x00, 0x00, 0x00, 0x00, 0x3f, 0x6f, 0xaa, 0x3c, 0xb6, 0xe0, 0x1f, 0x3b, 0x94, 0xe5, 0x12, 0x3d, 0xb7, 0x20, 0xa2, 0x3c, 0xbe, 0x9e, 0xeb, 0x3c, 0x00, 0x00, 0x00, 0x00, 0x26, 0x9d, 0xf1, 0x3c, 0x00, 0x00, 0x00, 0x00, 0xdf, 0x8b, 0x37, 0x3c, 0xab, 0x9c, 0x04, 0xbd, 0x62, 0x80, 0xca, 0x3c, 0xee, 0x05, 0xbd, 0x3c, 0xfe, 0x19, 0xc8, 0xbc, 0xc9, 0x0c, 0x37, 0x3b, 0x8f, 0x0e, 0x99, 0xbc, 0x00, 0x00, 0x00, 0x00, 0x34, 0x49, 0xc9, 0xbc, 0x1a, 0xb4, 0x9c, 0xbb, 0x18, 0x75, 0xd0, 0x3c, 0xad, 0x5f, 0x20, 0xbc, 0xcd, 0x5a, 0xdd, 0xbc, 0x18, 0x65, 0xb2, 0xbc, 0x00, 0x00, 0x00, 0x00, 0x74, 0x68, 0xcd, 0xbc, 0x00, 0x00, 0x00, 0x00, 0x11, 0x74, 0xc1, 0x3c, 0x31, 0xfc, 0x43, 0xbc, 0x00, 0x00, 0x00, 0x00, 0x32, 0x81, 0x0b, 0xbd, 0x6f, 0x80, 0xa4, 0xbc, 0xfd, 0x54, 0xd5, 0x3c, 0x5a, 0x50, 0x57, 0x3b, 0xd5, 0x2f, 0x7b, 0x3c, 0xff, 0x27, 0xae, 0x3c, 0xd3, 0xb5, 0xba, 0x3c, 0x00, 0x00, 0x00, 0x00, 0x48, 0x48, 0x03, 0x3d, 0x79, 0x07, 0x24, 0x3c, 0x00, 0x00, 0x00, 0x00, 0x5d, 0xe6, 0x82, 0xbc, 0xf1, 0x67, 0x4e, 0x3c, 0x04, 0x0f, 0x90, 0xbb, 0xe6, 0xef, 0xff, 0xff, 0x04, 0x00, 0x00, 0x00, 0x50, 0x00, 0x00, 0x00, 0x92, 0xf1, 0xce, 0xbc, 0x95, 0x88, 0xb1, 0xbc, 0x59, 0x6a, 0x2f, 0x3b, 0x00, 0x00, 0x00, 0x00, 0x00, 0x00, 0x00, 0x00, 0x00, 0x00, 0x00, 0x00, 0x12, 0xcc, 0x97, 0x3c, 0x00, 0x00, 0x00, 0x00, 0xd7, 0x12, 0xde, 0x3c, 0x00, 0x00, 0x00, 0x00, 0x14, 0x78, 0x8d, 0xbb, 0x72, 0x25, 0xb0, 0x3c, 0x79, 0x6f, 0x2e, 0x3a, 0xc6, 0x2f, 0x9a, 0x3c, 0x93, 0x1b, 0xeb, 0x3c, 0x42, 0x87, 0xf3, 0xbb, 0xa3, 0xf7, 0xa3, 0x3c, 0x0c, 0xcd, 0xa8, 0x3c, 0x7e, 0x08, 0x6e, 0xbc, 0xcc, 0x2e, 0xeb, 0x3c, 0x42, 0xf0, 0xff, 0xff, 0x04, 0x00, 0x00, 0x00, 0x04, 0x00, 0x00, 0x00, 0xd2, 0xae, 0xa3, 0x3c, 0x52, 0xf0, 0xff, 0xff, 0x04, 0x00, 0x00, 0x00, 0xa0, 0x0f, 0x00, 0x00, 0x5f, 0x62, 0x9a, 0xbd, 0x72, 0x73, 0x77, 0xbe, 0x4b, 0x2c, 0x74, 0x3e, 0x73, 0x6e, 0xba, 0x3e, 0x79, 0x42, 0x49, 0xbe, 0x40, 0x9f, 0x22, 0x3d, 0x4d, 0x64, 0x0b, 0x3d, 0xb4, 0x5f, 0x9f, 0x3d, 0x65, 0x86, 0x72, 0x3e, 0xb6, 0x85, 0x92, 0x3d, 0x2a, 0x00, 0x8f, 0xbe, 0x36, 0xa3, 0x87, 0xbd, 0x3c, 0x3f, 0x81, 0x3e, 0x48, 0x4a, 0x3d, 0x3d, 0xc7, 0xd0, 0x25, 0x3d, 0x34, 0x5b, 0x24, 0x3e, 0x87, 0x5b, 0x29, 0xbe, 0xb0, 0x0c, 0x47, 0x3e, 0x33, 0xf7, 0x13, 0x3e, 0x1a, 0x8a, 0x08, 0x3d, 0xeb, 0xa2, 0x00, 0x3e, 0xa8, 0xbd, 0x20, 0x3e, 0x69, 0xd0, 0x04, 0xbd, 0x59, 0xf3, 0x13, 0xbe, 0x82, 0x29, 0xcd, 0x3d, 0x91, 0x6f, 0x8d, 0xbe, 0x7e, 0xf6, 0x6e, 0xbd, 0x89, 0x31, 0x91, 0xbe, 0xcb, 0x80, 0x43, 0x3d, 0x33, 0xd6, 0xa1, 0x3d, 0x00, 0x3b, 0x92, 0x3e, 0x51, 0x8e, 0x17, 0x3e, 0xf0, 0x87, 0x11, 0xbe, 0xe5, 0xc4, 0x12, 0x3e, 0x99, 0x5c, 0x33, 0xbd, 0x00, 0xf5, 0x00, 0x3c, 0x2a, 0x30, 0x84, 0x3d, 0x89, 0xdf, 0x6d, 0x3e, 0x22, 0xbd, 0x1a, 0x3e, 0x30, 0x6a, 0xb5, 0xbd, 0x5c, 0x58, 0x05, 0x3e, 0xfc, 0x85, 0x2b, 0xbd, 0x8e, 0x38, 0xf7, 0xbc, 0x00, 0xe3, 0xd9, 0xbc, 0x92, 0x00, 0x8a, 0xbe, 0xaa, 0x2e, 0xb8, 0x3d, 0x28, 0x4c, 0x8f, 0xbe, 0xdb, 0x1b, 0x39, 0xbd, 0x84, 0xca, 0x8a, 0xbb, 0x5a, 0xa2, 0x5b, 0x3d, 0x67, 0xcb, 0x4d, 0xbe, 0xbd, 0x9c, 0x17, 0x3d, 0xf4, 0x29, 0x2c, 0x3a, 0x1f, 0x41, 0xf0, 0x3d, 0xa4, 0x4d, 0x75, 0xbe, 0x9c, 0x95, 0xbe, 0x3d, 0x04, 0xee, 0x31, 0xbe, 0x50, 0xbd, 0xf2, 0xbc, 0xcc, 0x66, 0x24, 0x3e, 0xfd, 0x42, 0xf3, 0x3d, 0xf6, 0x16, 0xd6, 0x3d, 0x19, 0x01, 0x66, 0xbd, 0x9b, 0x9e, 0x99, 0xbd, 0x9e, 0x17, 0x02, 0xbe, 0x08, 0x4b, 0x4e, 0x3e, 0x96, 0x51, 0x83, 0x3e, 0x4c, 0xe6, 0x9a, 0x3d, 0xa8, 0x65, 0xcd, 0xbc, 0x13, 0x5e, 0xeb, 0x3d, 0xbd, 0xa5, 0x82, 0xbe, 0x36, 0x17, 0x15, 0xbe, 0x1e, 0x3b, 0x8f, 0x3e, 0x57, 0xe2, 0x74, 0x3e, 0xc8, 0x4e, 0x99, 0x3d, 0x77, 0xf2, 0x19, 0x3e, 0x7d, 0x7c, 0x89, 0xbe, 0x0d, 0x7e, 0x98, 0xbc, 0xcc, 0x6e, 0x71, 0xbe, 0x00, 0x0e, 0x1a, 0x3d, 0xe1, 0xe5, 0x81, 0x3e, 0xfa, 0x28, 0x56, 0xbe, 0x5c, 0x16, 0x3b, 0xbc, 0xe6, 0xaf, 0x41, 0x3e, 0x65, 0xd3, 0x38, 0xbe, 0x8f, 0xea, 0x3f, 0x3e, 0x18, 0x04, 0x3b, 0x3e, 0x47, 0xcc, 0x8d, 0x3d, 0x75, 0x9b, 0x34, 0x3d, 0x80, 0x68, 0x1a, 0xbe, 0xef, 0x0a, 0x5d, 0xbe, 0xe5, 0xae, 0xbb, 0xbd, 0x7b, 0x12, 0x32, 0x3d, 0xeb, 0x3b, 0x16, 0xbe, 0x28, 0xd1, 0x2a, 0xbe, 0xd1, 0x95, 0x3e, 0x3e, 0x3b, 0x16, 0x6d, 0xbc, 0x34, 0x0c, 0x45, 0xbd, 0x30, 0x92, 0x29, 0xbd, 0x80, 0x99, 0x09, 0x3e, 0x5a, 0x86, 0x39, 0xbd, 0xf8, 0x83, 0x88, 0xbe, 0x2b, 0xe8, 0x14, 0xbe, 0x0b, 0xf0, 0x13, 0xbe, 0x27, 0xdd, 0x96, 0xbc, 0x3b, 0x65, 0x6c, 0x3e, 0x05, 0x5d, 0x91, 0xbe, 0x53, 0x04, 0x5a, 0xbe, 0xe0, 0x6b, 0xdb, 0x3c, 0x1d, 0x02, 0x8b, 0x3e, 0x5a, 0xd2, 0xfb, 0xbd, 0x0b, 0xaf, 0xcb, 0x3b, 0x0f, 0x6c, 0xab, 0xbc, 0x89, 0xde, 0x87, 0xbe, 0x48, 0x6b, 0x83, 0x3e, 0x85, 0x35, 0xd6, 0x3d, 0x00, 0x61, 0x17, 0x3e, 0x8a, 0xae, 0x6c, 0x3e, 0x78, 0x03, 0x7a, 0xbe, 0xc4, 0x13, 0x2b, 0xbe, 0x08, 0x5b, 0x16, 0x3e, 0x30, 0xa2, 0x02, 0xbe, 0x58, 0x2c, 0x81, 0x3d, 0xdc, 0x4c, 0xc2, 0xbd, 0x9c, 0xe0, 0x85, 0x3d, 0xe7, 0x28, 0x24, 0xbe, 0x57, 0xa5, 0x05, 0xbe, 0x08, 0x00, 0xbf, 0x3d, 0xb2, 0x7e, 0x7e, 0x3e, 0xdd, 0x62, 0xdb, 0x3d, 0x09, 0xa8, 0x87, 0xbc, 0x83, 0x53, 0x3d, 0xbe, 0x1a, 0xee, 0x28, 0x3e, 0x73, 0x17, 0x87, 0xbe, 0xc0, 0xc9, 0xf4, 0xbb, 0x08, 0xd7, 0x7a, 0x3e, 0x60, 0x0f, 0xbc, 0x3c, 0xfc, 0xfb, 0x87, 0x3e, 0x39, 0x77, 0x83, 0xbe, 0x5a, 0xfd, 0x3f, 0xbe, 0x72, 0x76, 0x82, 0xbd, 0x44, 0xc5, 0x39, 0xbd, 0x86, 0x15, 0xe2, 0xbd, 0xbd, 0x8e, 0x75, 0xbd, 0x7d, 0xd4, 0x89, 0xbe, 0xa4, 0x9e, 0xee, 0xbd, 0x00, 0x05, 0xd8, 0xbd, 0xd8, 0x53, 0xbb, 0x3d, 0x35, 0x27, 0x02, 0xbe, 0x03, 0x83, 0x32, 0xbd, 0x0d, 0x99, 0x3e, 0x3c, 0x3c, 0xa5, 0x09, 0xbe, 0xa8, 0x5f, 0x0a, 0xbe, 0x32, 0xc8, 0x43, 0xbe, 0x16, 0xaa, 0xc0, 0xbd, 0x1a, 0x80, 0x7b, 0xbe, 0x71, 0x63, 0x8d, 0xbe, 0xfe, 0xa2, 0x06, 0x3e, 0x70, 0xdd, 0x21, 0x3d, 0x98, 0x3e, 0xc5, 0x3d, 0x7e, 0xf6, 0x8f, 0x3e, 0xd0, 0xf6, 0x9e, 0x3d, 0xad, 0xe7, 0x81, 0xbe, 0xc5, 0x0d, 0x81, 0xbe, 0x38, 0xcc, 0x83, 0xbe, 0xe4, 0x64, 0x81, 0x3e, 0xf0, 0x84, 0xd6, 0xbc, 0xfa, 0xa2, 0x75, 0xbe, 0x30, 0x02, 0xa8, 0xbd, 0x9f, 0x95, 0x3f, 0xbe, 0xf7, 0xd3, 0x91, 0xbe, 0x48, 0x44, 0x6e, 0x3e, 0x5a, 0x2d, 0x8c, 0xbe, 0x3c, 0xbe, 0x44, 0xbe, 0xf9, 0xfe, 0x50, 0xbe, 0xe0, 0x7d, 0x4d, 0x3d, 0xe2, 0xc0, 0x93, 0xbe, 0xda, 0x8a, 0x70, 0xbe, 0x38, 0xfc, 0x0b, 0x3d, 0x00, 0xd6, 0x36, 0x3a, 0xac, 0xe1, 0xc1, 0xbd, 0xc5, 0x87, 0x53, 0xbe, 0x20, 0x8d, 0x2e, 0x3d, 0xb8, 0x40, 0x74, 0x3d, 0xd8, 0xbc, 0xda, 0x3d, 0x90, 0x63, 0x60, 0x3e, 0x6e, 0x00, 0x8a, 0xbe, 0x06, 0xac, 0x60, 0xbe, 0x9d, 0xd4, 0x28, 0xbe, 0x89, 0xf2, 0x92, 0xbe, 0x7e, 0x41, 0x7c, 0xbe, 0x14, 0xd4, 0x81, 0xbe, 0xd0, 0x04, 0xfc, 0x3d, 0x2a, 0x1e, 0x9e, 0xbd, 0x60, 0x0b, 0x74, 0xbc, 0x62, 0x35, 0xa0, 0xbd, 0xa6, 0xb0, 0x59, 0xbe, 0xd4, 0x4c, 0x08, 0x3e, 0x48, 0x59, 0x58, 0xbe, 0xea, 0xe1, 0x72, 0xbe, 0x98, 0xf4, 0x6b, 0x3e, 0x01, 0x70, 0x2b, 0xbe, 0x08, 0x10, 0x69, 0x3d, 0xed, 0x43, 0x85, 0xbe, 0xda, 0x5f, 0x9a, 0xbd, 0x00, 0x77, 0x38, 0xbe, 0x56, 0x37, 0x07, 0x3e, 0xcd, 0x23, 0x89, 0xbe, 0xe0, 0xfd, 0x02, 0x3d, 0x13, 0x6e, 0x12, 0xbe, 0x2e, 0x33, 0x07, 0xbe, 0x40, 0xc4, 0x81, 0xbe, 0x5b, 0xc9, 0x07, 0xbe, 0x58, 0x03, 0x08, 0x3d, 0x28, 0xc6, 0xcc, 0xbd, 0x46, 0x24, 0x2a, 0x3e, 0xc0, 0xfd, 0x19, 0x3c, 0xb6, 0x3a, 0x1a, 0xbe, 0xc0, 0xc3, 0x19, 0xbc, 0x13, 0x4c, 0x0e, 0xbe, 0xe8, 0xfd, 0xc7, 0xbd, 0x92, 0xb2, 0x0d, 0x3e, 0x64, 0x48, 0x5c, 0xbe, 0x56, 0x9e, 0x09, 0xbe, 0x38, 0xa8, 0x34, 0xbd, 0x18, 0x94, 0x4e, 0xbe, 0x12, 0xc4, 0x78, 0xbe, 0x0c, 0x3b, 0x49, 0xbe, 0x82, 0x55, 0x85, 0xbe, 0x5b, 0xc8, 0x82, 0xbe, 0x93, 0xce, 0x50, 0xbe, 0xc0, 0x95, 0xf6, 0x3c, 0x0f, 0x6b, 0x69, 0xbe, 0x6c, 0xd6, 0x82, 0x3e, 0x5e, 0x73, 0x25, 0x3e, 0x64, 0x46, 0x89, 0xbd, 0x46, 0xdc, 0x0f, 0x3e, 0xb0, 0x98, 0xe0, 0xbc, 0xcc, 0x94, 0x49, 0xbe, 0x40, 0xb8, 0x78, 0x3e, 0x80, 0xb8, 0xcd, 0x3c, 0x04, 0x0a, 0x36, 0x3e, 0xb8, 0xa9, 0x88, 0x3d, 0xd0, 0xde, 0xcd, 0xbd, 0xb2, 0xbe, 0x7f, 0xbe, 0x6e, 0x58, 0x95, 0x3e, 0xec, 0x35, 0x78, 0xbd, 0x22, 0x8d, 0x17, 0xbe, 0x4f, 0xad, 0x42, 0xbe, 0x74, 0x19, 0xbd, 0xbd, 0xa8, 0xf0, 0x68, 0x3d, 0x58, 0x0d, 0xf8, 0xbd, 0xe5, 0x05, 0x83, 0xbe, 0xd6, 0x02, 0x31, 0x3e, 0xf4, 0xe8, 0x3b, 0xbe, 0xac, 0xba, 0x37, 0xbd, 0x7e, 0x89, 0x23, 0x3e, 0xa8, 0xd0, 0x3d, 0xbd, 0x61, 0x7a, 0x89, 0xbe, 0x3b, 0x6c, 0x43, 0xbe, 0x40, 0x45, 0x14, 0x3e, 0xba, 0xe3, 0x0c, 0x3e, 0x6c, 0xa1, 0x65, 0xbe, 0xf8, 0xc4, 0x60, 0xbe, 0xd6, 0xbe, 0x68, 0xbe, 0x18, 0x49, 0xc9, 0x3d, 0xa7, 0x9c, 0x13, 0xbe, 0xe4, 0x61, 0x49, 0x3e, 0xf8, 0x7e, 0x01, 0x3e, 0xfe, 0x43, 0x6b, 0xbe, 0xea, 0x49, 0x46, 0xbe, 0xe2, 0xaf, 0x80, 0x3e, 0x92, 0xf4, 0xd3, 0xbd, 0x6e, 0xb7, 0x8f, 0xbe, 0x00, 0x31, 0x64, 0x3d, 0x58, 0x0d, 0x16, 0x3d, 0x06, 0x51, 0x09, 0x3e, 0xa4, 0xf7, 0x4b, 0x3e, 0xc2, 0xc4, 0x49, 0xbe, 0x80, 0x56, 0x50, 0xbb, 0x90, 0x51, 0x36, 0xbe, 0xf8, 0x1c, 0x09, 0x3e, 0x3c, 0xed, 0xd5, 0xbd, 0x1c, 0xa6, 0xca, 0x3d, 0x9a, 0x4f, 0xf2, 0xbd, 0x50, 0xd2, 0xf3, 0xbd, 0xb0, 0x97, 0x4b, 0xbe, 0x1e, 0x05, 0x86, 0xbe, 0x85, 0xaa, 0x95, 0xbe, 0x2a, 0x09, 0x99, 0xbd, 0x50, 0x82, 0xd7, 0xbd, 0x34, 0x25, 0x94, 0x3d, 0x68, 0x91, 0x24, 0x3e, 0xf4, 0x9d, 0x52, 0xbe, 0xea, 0xdf, 0x91, 0xbe, 0xe2, 0x7b, 0x4c, 0x3e, 0x4e, 0x46, 0x05, 0x3e, 0x32, 0xab, 0x4d, 0xbe, 0x43, 0xcc, 0x95, 0xbe, 0xb4, 0x39, 0x3c, 0x3e, 0x48, 0xe9, 0x14, 0x3d, 0x23, 0xc2, 0x3a, 0x3e, 0x95, 0x9c, 0x88, 0x3e, 0xa9, 0x0a, 0x82, 0x3e, 0x21, 0x44, 0x15, 0x3e, 0x70, 0xa6, 0x5d, 0xbb, 0x9c, 0x9e, 0x9f, 0xbd, 0x5a, 0x8e, 0xa3, 0xbd, 0x4e, 0x16, 0x53, 0x3e, 0xad, 0x54, 0x1f, 0x3d, 0xdc, 0xab, 0xb2, 0x3d, 0x40, 0xa8, 0x67, 0x3e, 0x89, 0x8c, 0x43, 0x3e, 0x0f, 0x8c, 0x4e, 0x3d, 0x72, 0xd9, 0xdc, 0xbd, 0xda, 0x48, 0xa2, 0x3d, 0x16, 0xa7, 0xa8, 0xbd, 0x8a, 0x6c, 0xc6, 0xbd, 0xe2, 0x56, 0x23, 0xbe, 0x4d, 0xf9, 0x26, 0xbe, 0x19, 0x06, 0x4d, 0xbe, 0xba, 0xe4, 0x2d, 0x3e, 0x1e, 0x0d, 0x78, 0xbd, 0xda, 0x20, 0x85, 0x3e, 0xcf, 0x40, 0x49, 0xbe, 0xd5, 0x7e, 0xdf, 0x3d, 0x9f, 0x31, 0x39, 0xbc, 0xca, 0xa7, 0x35, 0xbe, 0x46, 0x4c, 0x44, 0xbe, 0xaf, 0x4b, 0xb3, 0x3d, 0xf1, 0x15, 0x81, 0x3e, 0xb2, 0x2e, 0x90, 0x3e, 0x8c, 0x43, 0x2d, 0x3e, 0xdc, 0x87, 0x02, 0x3e, 0x6f, 0xd0, 0xf7, 0xbd, 0xba, 0xb2, 0x62, 0x3e, 0x88, 0xfe, 0x76, 0x3e, 0xdb, 0xce, 0x35, 0x3e, 0xec, 0x95, 0xb4, 0xb9, 0x5d, 0x63, 0xab, 0x3d, 0x3b, 0xe6, 0x59, 0x3e, 0x29, 0x59, 0x61, 0xbe, 0x29, 0xb6, 0xa0, 0x3e, 0x0a, 0xf7, 0x57, 0xbe, 0x13, 0xdf, 0x81, 0xbe, 0x09, 0xce, 0x08, 0x3e, 0x44, 0x99, 0xe0, 0xbd, 0x00, 0x87, 0x09, 0xbc, 0xab, 0x56, 0x36, 0xbd, 0x58, 0xf5, 0x94, 0xbd, 0x3d, 0x16, 0x3d, 0x3e, 0x5e, 0x0a, 0x34, 0x3e, 0x60, 0x18, 0x4e, 0xbc, 0x4e, 0x02, 0xdb, 0xbd, 0xaf, 0x79, 0x8f, 0xbe, 0xfa, 0xee, 0x86, 0xbe, 0x6e, 0x1e, 0x95, 0xbd, 0x50, 0xec, 0x1a, 0x3d, 0x5c, 0x53, 0xeb, 0xbd, 0x12, 0x01, 0x84, 0xbe, 0x97, 0xe7, 0x2c, 0xbe, 0xb4, 0x5b, 0x26, 0x3e, 0x18, 0x9a, 0x17, 0x3d, 0x5d, 0x4d, 0x3b, 0xbe, 0x68, 0xa9, 0x92, 0x3e, 0x4c, 0xe5, 0x89, 0x3e, 0x66, 0xb2, 0x1e, 0x3e, 0x09, 0x0a, 0x26, 0xbe, 0x1c, 0xaa, 0x96, 0xbd, 0x18, 0x4a, 0x72, 0x3e, 0xa2, 0x09, 0x30, 0x3e, 0x30, 0x2e, 0x13, 0x3e, 0x18, 0xe4, 0x0a, 0x3e, 0x72, 0x8a, 0x2d, 0xbe, 0x10, 0xd6, 0x0d, 0x3d, 0x8b, 0x66, 0x8e, 0xbe, 0x58, 0x26, 0xe0, 0xbd, 0x88, 0x04, 0x50, 0x3d, 0x00, 0x6a, 0x4a, 0xba, 0xc8, 0x26, 0x05, 0xbd, 0x3b, 0x20, 0x4a, 0xbe, 0xb4, 0x40, 0xdf, 0x3d, 0xa0, 0x64, 0xc2, 0xbc, 0xae, 0xc5, 0x40, 0x3e, 0x60, 0x68, 0x5c, 0xbc, 0x08, 0x40, 0x73, 0x3d, 0xa4, 0xe9, 0x3c, 0xbe, 0xf5, 0x58, 0x0e, 0xbe, 0x93, 0x28, 0x28, 0xbe, 0x96, 0xb3, 0x46, 0xbe, 0x7c, 0x08, 0x08, 0x3e, 0x65, 0x79, 0x5e, 0xbe, 0xe0, 0x2e, 0xbd, 0xbc, 0xe0, 0x85, 0x1d, 0xbc, 0x48, 0xa8, 0x83, 0xbe, 0x09, 0x32, 0x34, 0xbe, 0xb4, 0x1a, 0x78, 0xbd, 0xe0, 0x08, 0x89, 0x3c, 0xe8, 0xd2, 0x72, 0x3e, 0xd6, 0xa4, 0xba, 0xbd, 0xd4, 0x4e, 0x2d, 0xbe, 0xca, 0x8c, 0xfc, 0xbd, 0x27, 0xb1, 0x89, 0xbd, 0x59, 0xdc, 0x85, 0x3e, 0x34, 0x88, 0x33, 0xbd, 0x1f, 0xb6, 0xa5, 0xbd, 0x78, 0x43, 0x80, 0x3e, 0x91, 0x28, 0xb2, 0xbc, 0xdd, 0x20, 0x93, 0xbe, 0xb0, 0x44, 0x83, 0x3e, 0xdf, 0xbe, 0x5b, 0xbd, 0x95, 0x0d, 0x41, 0xbe, 0x97, 0x34, 0x88, 0x3e, 0x06, 0xdc, 0x03, 0x3e, 0x86, 0x04, 0x8f, 0x3e, 0x76, 0xdc, 0x8b, 0x3e, 0x91, 0xed, 0x86, 0xbe, 0x48, 0x4e, 0xc3, 0xbd, 0x93, 0x02, 0x7c, 0xbd, 0x36, 0x6d, 0x67, 0x3e, 0x7e, 0x14, 0xff, 0x3d, 0xb5, 0x28, 0x77, 0xbe, 0x60, 0xd9, 0x8f, 0xbe, 0x9c, 0xd3, 0x77, 0xbe, 0xc8, 0xcb, 0x53, 0xbe, 0x8a, 0x8d, 0xd7, 0xbd, 0xd7, 0x62, 0x60, 0xbe, 0x7a, 0x3b, 0x67, 0x3e, 0x05, 0xa3, 0x35, 0xbd, 0xa4, 0xed, 0xa4, 0xbd, 0xb4, 0x3a, 0x4f, 0xbe, 0x30, 0xec, 0xfd, 0x3c, 0xf5, 0x5c, 0x37, 0x3e, 0x9c, 0xb1, 0x2e, 0x3e, 0xe4, 0x95, 0x4d, 0xbe, 0xc0, 0x31, 0xbb, 0xbc, 0x42, 0x5d, 0x04, 0x3e, 0xd2, 0x47, 0xf8, 0xbd, 0x3c, 0xcb, 0x89, 0x3d, 0x5d, 0xc5, 0xdd, 0xbd, 0x38, 0x6a, 0x43, 0xbe, 0x8f, 0xb9, 0x66, 0x3e, 0x8a, 0xcf, 0xd3, 0x3c, 0x53, 0xce, 0x95, 0xbe, 0x58, 0x18, 0x92, 0xbd, 0x20, 0xa9, 0x36, 0xbe, 0xc8, 0xaf, 0x98, 0x3e, 0x64, 0xb8, 0x5d, 0x3e, 0x84, 0xf1, 0x1f, 0xbe, 0x15, 0xa0, 0x76, 0x3e, 0x71, 0x40, 0x43, 0x3e, 0xa2, 0x9a, 0xad, 0xbd, 0x2a, 0x29, 0x24, 0x3e, 0x80, 0x72, 0xe5, 0x3b, 0x3c, 0x36, 0x1f, 0x3e, 0x18, 0xcd, 0x1c, 0x3e, 0x72, 0xfb, 0x0c, 0xbe, 0x36, 0xb9, 0x8b, 0x3e, 0x28, 0xfe, 0xc7, 0xbd, 0xc4, 0xa0, 0x1d, 0x3e, 0xf4, 0x9c, 0xf4, 0x3d, 0xfa, 0x0f, 0x52, 0x3e, 0x84, 0xf5, 0xb4, 0x3d, 0x60, 0x39, 0x14, 0xbc, 0xf0, 0xea, 0xef, 0x3c, 0x88, 0xe3, 0xb5, 0x3d, 0x6a, 0xc5, 0x37, 0x3e, 0x48, 0xff, 0x5a, 0xbe, 0xd8, 0x23, 0xf1, 0xbd, 0x08, 0xe1, 0x07, 0xbe, 0x28, 0x67, 0x32, 0xbe, 0x22, 0x05, 0x24, 0x3e, 0xd4, 0x18, 0x47, 0xbe, 0xa6, 0x4f, 0x33, 0xbe, 0xe8, 0xe2, 0x9a, 0x3d, 0xb5, 0xc1, 0x0b, 0xbe, 0xd2, 0x2d, 0x11, 0x3e, 0x68, 0x28, 0x6e, 0x3d, 0x00, 0xe9, 0x8e, 0xbc, 0xba, 0x19, 0xc7, 0xbd, 0xc0, 0x8e, 0xac, 0xbc, 0x48, 0xf1, 0x5a, 0x3d, 0x26, 0x36, 0x76, 0xbe, 0x08, 0x63, 0x08, 0xbd, 0x24, 0xe5, 0x4d, 0xbd, 0xee, 0x1a, 0xcf, 0xbd, 0x18, 0x5c, 0x4e, 0x3d, 0x42, 0x90, 0x61, 0xbe, 0x05, 0xad, 0x89, 0xbe, 0xe8, 0x2c, 0x93, 0xbd, 0x60, 0x97, 0x2b, 0xbd, 0x9a, 0xf7, 0x14, 0xbe, 0xa3, 0xc9, 0x08, 0xbe, 0x4c, 0x61, 0xdc, 0xbd, 0x78, 0xc7, 0x06, 0xbd, 0x04, 0xce, 0xb9, 0x3d, 0x74, 0xc9, 0x2a, 0xbe, 0xef, 0x65, 0x7d, 0xbe, 0x42, 0xc3, 0xa5, 0xbd, 0x26, 0x3f, 0x21, 0xbe, 0x20, 0x56, 0x6d, 0xbe, 0x58, 0xae, 0x4b, 0xbe, 0x40, 0x0c, 0x2a, 0x3c, 0x62, 0xab, 0x8b, 0xbe, 0xd4, 0xa6, 0x1e, 0x3d, 0x13, 0xfa, 0x68, 0xbc, 0xac, 0xf0, 0x51, 0xbe, 0xa0, 0x3b, 0x79, 0x3e, 0xe0, 0x55, 0x0f, 0x3e, 0x52, 0x5a, 0x7a, 0x3e, 0x90, 0x83, 0x11, 0xbe, 0xd5, 0x3b, 0x45, 0xbe, 0x01, 0xe8, 0x8c, 0xbd, 0x2c, 0xf3, 0xec, 0x3d, 0xac, 0x70, 0xbb, 0x3d, 0x13, 0xd8, 0xf8, 0xbd, 0x00, 0x5c, 0xbc, 0xba, 0xc0, 0x0d, 0x44, 0xbe, 0x66, 0xba, 0xe9, 0xbd, 0x19, 0x48, 0xbf, 0x3d, 0x01, 0xac, 0x83, 0xbe, 0x2a, 0x0a, 0x2e, 0x3e, 0x22, 0x2c, 0x5c, 0x3d, 0x73, 0x94, 0x5b, 0xbe, 0x78, 0xc3, 0x78, 0x3d, 0x50, 0x7b, 0x6f, 0x3e, 0x26, 0x0a, 0x78, 0xbe, 0x40, 0xa5, 0x10, 0xbc, 0xbe, 0xe7, 0x92, 0xbe, 0x5d, 0xd5, 0x4c, 0x3e, 0xb1, 0xb4, 0xc5, 0x3d, 0xe0, 0xcb, 0xa7, 0x3d, 0x1a, 0xc5, 0xcb, 0xbd, 0x48, 0x83, 0x7d, 0xbd, 0xbc, 0xff, 0x03, 0xbe, 0xa8, 0x4f, 0xc6, 0x3d, 0x03, 0x4f, 0x8c, 0xbe, 0x3d, 0xdd, 0x7d, 0xbe, 0xb3, 0x96, 0x81, 0x3e, 0xe0, 0x59, 0x73, 0xbe, 0x0c, 0x1e, 0x35, 0x3e, 0x88, 0x3d, 0x9d, 0x3d, 0x95, 0x67, 0x59, 0xbe, 0x02, 0xbd, 0x58, 0xbe, 0x20, 0x6a, 0x2b, 0xbd, 0xc3, 0x3e, 0xe1, 0xbd, 0x5c, 0x52, 0x29, 0xbe, 0xbe, 0xae, 0x65, 0xbe, 0xc6, 0x66, 0x4f, 0x3e, 0xeb, 0xca, 0xf2, 0x3d, 0x28, 0xd8, 0x57, 0x3e, 0x0c, 0x85, 0xcf, 0xbd, 0xa2, 0xce, 0xd3, 0xbd, 0x71, 0x6d, 0x04, 0xbd, 0x5f, 0x23, 0x4c, 0xbe, 0xd5, 0xe4, 0x77, 0x3e, 0x44, 0x19, 0xb9, 0xbd, 0x77, 0x96, 0x6d, 0xbe, 0x00, 0x79, 0x24, 0x3d, 0xd9, 0xe9, 0x25, 0x3e, 0xdc, 0x72, 0x89, 0x3e, 0x20, 0xf9, 0x68, 0x3e, 0x9e, 0xfc, 0x26, 0x3e, 0x4d, 0x21, 0xfe, 0x3d, 0x5b, 0xc2, 0x80, 0xbe, 0xe7, 0xd4, 0x83, 0xbc, 0xda, 0x21, 0x93, 0xbd, 0xe1, 0x7d, 0xa2, 0x3e, 0x29, 0xd3, 0xfd, 0xbd, 0x06, 0xc4, 0xdd, 0x3d, 0xc8, 0x2d, 0x08, 0xbe, 0x46, 0x54, 0x20, 0x3e, 0xdc, 0xc4, 0xa2, 0xbd, 0xe9, 0x5c, 0x28, 0xbe, 0xce, 0x22, 0xfe, 0xbd, 0x18, 0x87, 0x4d, 0xbe, 0x09, 0xd5, 0x6e, 0xbe, 0xe9, 0x30, 0x85, 0x3c, 0xf7, 0x8f, 0xbe, 0x3c, 0x13, 0x35, 0xad, 0x3d, 0xf9, 0x49, 0xb0, 0x3d, 0x5e, 0x57, 0x81, 0x3e, 0x1d, 0x78, 0x10, 0x3c, 0x70, 0x7e, 0xfe, 0xbc, 0x02, 0xeb, 0x33, 0xbe, 0x30, 0xef, 0x41, 0x3e, 0x10, 0x17, 0xf3, 0x3c, 0x9d, 0xe3, 0x24, 0xbe, 0xea, 0xfd, 0x0d, 0xbe, 0xc0, 0x23, 0xb4, 0x3c, 0x9a, 0xf6, 0xaf, 0x3d, 0x53, 0x03, 0x22, 0xbe, 0xed, 0x92, 0xb2, 0xbd, 0x7c, 0x1c, 0x82, 0x3e, 0x50, 0x45, 0xc2, 0xbc, 0x11, 0x3c, 0x3e, 0xbe, 0x1e, 0x6b, 0x1a, 0x3e, 0xb6, 0x3a, 0x30, 0xbe, 0xdd, 0x19, 0xea, 0x3b, 0x49, 0x40, 0x85, 0xbe, 0x22, 0x2c, 0x7b, 0x3c, 0x3f, 0x34, 0x14, 0xbe, 0x64, 0xa0, 0x7f, 0xbe, 0xa6, 0x69, 0xb9, 0xbd, 0xda, 0xe8, 0x22, 0x3e, 0x1f, 0x1b, 0x54, 0x3e, 0xa2, 0xd8, 0x2d, 0xbe, 0x66, 0x09, 0x8b, 0x3e, 0x98, 0x29, 0x39, 0xbd, 0xf8, 0x1c, 0xee, 0xb9, 0xb5, 0x2e, 0xf5, 0x3c, 0x96, 0x6f, 0x97, 0x3d, 0xda, 0x70, 0x07, 0x3e, 0x33, 0xd2, 0x3c, 0x3e, 0x9e, 0xbf, 0xe7, 0xbd, 0x04, 0xfa, 0x3a, 0xbe, 0x30, 0xa8, 0xc0, 0x3d, 0xdf, 0x1a, 0x2c, 0x3d, 0x16, 0xa6, 0x86, 0xbe, 0x9e, 0x2e, 0x5f, 0xbe, 0x8f, 0xc4, 0x6f, 0x3e, 0x65, 0x6e, 0x82, 0x3e, 0x89, 0x0e, 0x76, 0x3d, 0x15, 0x24, 0x96, 0xbd, 0x84, 0x72, 0xa6, 0xbd, 0x72, 0x32, 0x16, 0x3e, 0xab, 0x49, 0x95, 0x3e, 0x43, 0xfd, 0x1d, 0xbd, 0x4e, 0xee, 0x7a, 0x3e, 0x82, 0x22, 0x0a, 0xbd, 0x6f, 0x9d, 0x86, 0xbe, 0x89, 0xc3, 0x23, 0xbe, 0x18, 0x1d, 0x15, 0xbe, 0x74, 0x74, 0x56, 0xbe, 0x94, 0x45, 0xbc, 0x3d, 0x6f, 0xbc, 0x4b, 0x3d, 0x5c, 0xda, 0xfc, 0x3d, 0x44, 0xa5, 0x93, 0xbd, 0x70, 0x8d, 0x7d, 0xbe, 0x4d, 0x72, 0x85, 0x3e, 0x10, 0xaa, 0x31, 0xbe, 0x93, 0x65, 0x33, 0xbd, 0x74, 0x10, 0x2b, 0x3e, 0x9f, 0x42, 0x5d, 0xbe, 0xe8, 0x1d, 0x4a, 0xbd, 0x88, 0xce, 0x08, 0x3e, 0x59, 0x89, 0x4a, 0x3d, 0x84, 0x29, 0x45, 0x3e, 0x37, 0xf6, 0xe8, 0xbd, 0xa7, 0x24, 0x5c, 0xbc, 0x0a, 0xd5, 0xcc, 0xbd, 0x75, 0x92, 0xc0, 0xbb, 0x56, 0x44, 0x1c, 0xbe, 0x15, 0xc1, 0xd3, 0x3d, 0x4f, 0x45, 0x26, 0xbb, 0xbe, 0x09, 0x6b, 0x3d, 0xd0, 0x30, 0xdd, 0xbc, 0x92, 0x2f, 0x87, 0xbc, 0x90, 0xe2, 0x85, 0x3c, 0x33, 0xd0, 0x62, 0x3e, 0xa8, 0x23, 0xda, 0x3d, 0x0c, 0x19, 0xb0, 0x3e, 0xf7, 0x03, 0x97, 0x3e, 0xd3, 0x82, 0x30, 0xbe, 0x60, 0xef, 0x52, 0x3d, 0x8d, 0x57, 0xd0, 0xbd, 0x6e, 0x1c, 0x18, 0x3e, 0x68, 0x52, 0xa3, 0xbd, 0x3f, 0xc7, 0x65, 0xbe, 0xd3, 0x7d, 0x64, 0xbc, 0x40, 0x60, 0x53, 0xbe, 0xed, 0x60, 0x96, 0x3d, 0x37, 0xb2, 0x85, 0x3e, 0x9e, 0xf5, 0x1e, 0x3d, 0x40, 0x53, 0x75, 0xbe, 0xc1, 0x00, 0x55, 0xbb, 0x97, 0xdb, 0x92, 0x3e, 0x48, 0xc5, 0x3d, 0xbe, 0x4f, 0x5c, 0x35, 0x3e, 0xc5, 0xe5, 0x8b, 0xbe, 0x35, 0x7e, 0x99, 0x3e, 0x84, 0xe7, 0xde, 0x3d, 0x0d, 0x4d, 0x5c, 0xbc, 0x34, 0x50, 0xb1, 0xbd, 0x81, 0xf6, 0xb5, 0x3d, 0x06, 0x06, 0x0c, 0x3e, 0xc0, 0xf1, 0x85, 0x3e, 0x73, 0xa5, 0xa0, 0xbd, 0x01, 0xd8, 0x6e, 0xbe, 0x08, 0xba, 0x01, 0xbc, 0x1e, 0xa6, 0xa8, 0xbd, 0x6c, 0x99, 0x98, 0xbb, 0x56, 0x83, 0x93, 0x3e, 0x39, 0x9a, 0xa1, 0xbe, 0x9b, 0xde, 0x08, 0xbe, 0xa9, 0x79, 0x06, 0x3c, 0x81, 0x58, 0x90, 0x3e, 0x20, 0x91, 0x75, 0x3e, 0x80, 0x9b, 0x98, 0xbe, 0xdf, 0x29, 0xb3, 0xbd, 0x5c, 0x4b, 0x5b, 0x3e, 0x6b, 0x79, 0x74, 0x3e, 0xeb, 0x1f, 0x3e, 0x3e, 0xb6, 0x48, 0x3b, 0xbe, 0xae, 0xee, 0x8f, 0x3b, 0x7b, 0xf9, 0x59, 0x3e, 0x9e, 0x8e, 0x0d, 0xbe, 0x7c, 0xe2, 0x26, 0xbe, 0xa6, 0x8c, 0x3c, 0x3e, 0x14, 0x82, 0x95, 0x3d, 0x2c, 0x92, 0x3e, 0x3e, 0xb4, 0x6c, 0x1c, 0x3e, 0xa6, 0xc6, 0x74, 0xbe, 0x29, 0xd1, 0x9d, 0x3e, 0xb2, 0x37, 0x61, 0xbe, 0x2f, 0x7f, 0x3a, 0x3e, 0x12, 0x91, 0xea, 0xbd, 0x3f, 0x48, 0x42, 0xbe, 0x0d, 0xff, 0xf7, 0xbd, 0x6c, 0x08, 0x7a, 0x3d, 0xa4, 0x83, 0x0d, 0xbd, 0xd5, 0x78, 0x83, 0xbe, 0xc6, 0xf4, 0x6c, 0x3e, 0x95, 0xe5, 0x51, 0xbe, 0x68, 0xca, 0x3a, 0x3d, 0x0d, 0xcf, 0xa2, 0x3c, 0xef, 0x79, 0xca, 0xbd, 0xd8, 0x58, 0xca, 0xbc, 0xcd, 0x9c, 0x60, 0xbe, 0xab, 0x81, 0x87, 0xbd, 0xb1, 0x69, 0x00, 0x3e, 0x4c, 0xc7, 0x83, 0xbe, 0xff, 0xa1, 0x58, 0xbe, 0xce, 0xd8, 0x24, 0xbe, 0xa3, 0xd7, 0x8f, 0x3d, 0xe1, 0x17, 0x95, 0x3c, 0xa0, 0xa9, 0x69, 0x3e, 0xdd, 0x8c, 0x30, 0x3e, 0x9c, 0xfa, 0x4b, 0xbd, 0xa3, 0x52, 0x7f, 0x3e, 0x89, 0xc8, 0x04, 0x3b, 0x2b, 0x98, 0x8e, 0x3e, 0x7d, 0x28, 0x63, 0x3d, 0xdb, 0xb6, 0x9f, 0xbe, 0x86, 0x46, 0x13, 0x3e, 0xb7, 0x2d, 0x9c, 0x3e, 0x50, 0x39, 0x4d, 0x3e, 0x64, 0xd7, 0x56, 0x3e, 0xa4, 0x70, 0xa9, 0x3c, 0xc7, 0x7b, 0x78, 0xbe, 0xe5, 0x5c, 0x38, 0xbe, 0xcb, 0x72, 0x18, 0x3e, 0xcf, 0x8f, 0x94, 0xbd, 0xc2, 0x14, 0x84, 0x3e, 0xe7, 0xe6, 0x85, 0xbd, 0x4f, 0x91, 0x94, 0x3d, 0x7f, 0xdc, 0x76, 0xbe, 0x04, 0x8b, 0x3c, 0x3e, 0x44, 0xe8, 0x32, 0xbe, 0x94, 0x6f, 0xc3, 0xbd, 0x99, 0x5b, 0xe8, 0xbd, 0xc4, 0x06, 0x98, 0x3c, 0x0b, 0x5e, 0xeb, 0x3d, 0xc0, 0xae, 0xa9, 0x3b, 0x00, 0xa5, 0xab, 0xbc, 0xd1, 0xbc, 0x9d, 0xbe, 0xb4, 0x7c, 0x8b, 0xbe, 0x11, 0xfb, 0x8b, 0x3e, 0x0b, 0x7e, 0x89, 0xbe, 0x77, 0x4b, 0x05, 0xbe, 0xf4, 0x9d, 0x6c, 0xbd, 0x20, 0xf7, 0x90, 0x3d, 0x53, 0x99, 0x2e, 0xbd, 0x9c, 0xd0, 0x12, 0x3e, 0x90, 0x46, 0x33, 0x3d, 0x1a, 0x69, 0x93, 0x3e, 0x22, 0xa8, 0x1d, 0xbe, 0x39, 0xf6, 0x19, 0x3e, 0x42, 0xbb, 0x5a, 0x3e, 0x65, 0x76, 0xb0, 0xbd, 0xe9, 0xbe, 0x21, 0xbe, 0xda, 0x98, 0x8a, 0x3e, 0x30, 0x83, 0x8b, 0xbe, 0xb2, 0xb6, 0x38, 0x3e, 0x9e, 0xa8, 0x15, 0xbe, 0x39, 0xac, 0x67, 0xbe, 0x39, 0x52, 0x88, 0xbe, 0x27, 0x0c, 0x8b, 0x3e, 0xcc, 0x64, 0x80, 0x3e, 0xda, 0xbc, 0x68, 0x3e, 0xe4, 0xa7, 0x0e, 0xbe, 0x8a, 0x03, 0x14, 0x3e, 0xab, 0x24, 0x86, 0xbe, 0x19, 0x3b, 0x26, 0x3e, 0x62, 0xdc, 0x11, 0xbe, 0xc9, 0x7f, 0x96, 0xbe, 0xbc, 0xb2, 0xa6, 0xbe, 0x44, 0x9f, 0x6e, 0x3e, 0x86, 0x3d, 0xdb, 0x3d, 0x81, 0xfa, 0x2e, 0x3e, 0xab, 0x3e, 0x1c, 0x3e, 0x5f, 0x55, 0x58, 0x3e, 0x0c, 0x46, 0x26, 0x3e, 0xe4, 0x0e, 0x52, 0x3e, 0xa4, 0x57, 0x8f, 0xbe, 0x56, 0x2d, 0x35, 0xbd, 0x02, 0xba, 0x50, 0xbe, 0xb1, 0x25, 0x09, 0xbe, 0xfa, 0x03, 0x3a, 0x3e, 0x5f, 0xd3, 0xb0, 0xbd, 0x77, 0x60, 0x3d, 0x3d, 0x2b, 0x8a, 0x51, 0xbe, 0xcf, 0xe2, 0x90, 0x3e, 0xf5, 0x2f, 0x6a, 0x3c, 0x29, 0x55, 0x92, 0xbe, 0x43, 0x52, 0x5a, 0x3e, 0x96, 0x95, 0xf1, 0xbd, 0x81, 0xce, 0xeb, 0x3d, 0x36, 0xcb, 0x85, 0x3e, 0x63, 0x86, 0xc2, 0x3d, 0xf1, 0x4a, 0x7b, 0xbe, 0xe0, 0x8a, 0xef, 0xba, 0x98, 0x72, 0x1d, 0x3e, 0xa3, 0x8e, 0xc9, 0xbd, 0xfa, 0x21, 0x6b, 0xbe, 0xd9, 0xa6, 0x0e, 0xbc, 0x50, 0x65, 0x3d, 0xbd, 0x5d, 0x11, 0x30, 0x3e, 0x1f, 0x2c, 0xfd, 0xbd, 0x5c, 0x05, 0x28, 0xbe, 0x32, 0x33, 0x75, 0xbc, 0x40, 0x49, 0xf0, 0x3b, 0x67, 0x4c, 0x45, 0xbe, 0x40, 0x80, 0x1b, 0x3e, 0xc6, 0x48, 0x0d, 0x3e, 0x87, 0x3b, 0x04, 0x3e, 0x10, 0xc1, 0xf5, 0xbc, 0xf3, 0x2e, 0x47, 0xbe, 0x38, 0xbe, 0x84, 0xbd, 0x92, 0x4c, 0xdf, 0x3d, 0xcb, 0x05, 0x59, 0xbd, 0xd9, 0x52, 0x9c, 0xbd, 0xd2, 0xc8, 0xf4, 0x3d, 0xb2, 0xc6, 0x3b, 0x3d, 0xec, 0x98, 0x72, 0xbe, 0xd9, 0xa6, 0x0b, 0xbe, 0x8b, 0x21, 0x1a, 0xbe, 0x80, 0x97, 0x91, 0x3e, 0xff, 0x65, 0x1a, 0xbe, 0xdd, 0x1d, 0x54, 0xbe, 0xf1, 0x23, 0x8f, 0x3e, 0x20, 0xea, 0xa9, 0x3d, 0x5d, 0xd8, 0x0e, 0xbd, 0x49, 0x03, 0x8e, 0x3d, 0x4c, 0x92, 0x7b, 0xbe, 0x4d, 0xee, 0x78, 0xbe, 0x98, 0x2f, 0x8e, 0x3e, 0xae, 0x76, 0xe2, 0x3d, 0x00, 0xc5, 0x90, 0xbe, 0x73, 0x78, 0x3c, 0x3e, 0x2d, 0x57, 0x66, 0x3d, 0x8f, 0x4a, 0x9d, 0x3e, 0xe8, 0x7f, 0x90, 0x3e, 0x11, 0x4d, 0x12, 0x3e, 0x78, 0x23, 0xf5, 0x3d, 0xf9, 0x28, 0x8d, 0x3e, 0x84, 0xf5, 0x73, 0x3e, 0xc2, 0x74, 0x0e, 0xbe, 0xbf, 0x2a, 0xad, 0x3c, 0x98, 0xb4, 0x7c, 0x3e, 0x40, 0x50, 0x12, 0x3e, 0xcc, 0x0b, 0x4a, 0xbe, 0x12, 0xea, 0x04, 0xbe, 0xe6, 0xc3, 0x40, 0xbe, 0x16, 0x5f, 0x89, 0x3e, 0xd6, 0x0a, 0x3d, 0x3e, 0x50, 0x09, 0xdb, 0xbd, 0xcf, 0xb5, 0xdd, 0x3d, 0xf9, 0x62, 0x49, 0xbe, 0xfa, 0xc3, 0x7a, 0xbb, 0xd8, 0x8b, 0x09, 0xbe, 0xd0, 0x18, 0xd3, 0x3c, 0x00, 0x6a, 0x82, 0xbd, 0x80, 0x28, 0x0c, 0x3d, 0x5f, 0xd8, 0x81, 0x3e, 0xa4, 0x57, 0x68, 0x3e, 0x94, 0xdf, 0x28, 0x3e, 0x44, 0x3f, 0x83, 0x3e, 0xec, 0xf8, 0x40, 0xbb, 0xaf, 0xd3, 0xd0, 0x3d, 0x2c, 0xfa, 0x6d, 0x3c, 0x7f, 0x2c, 0x0d, 0xbe, 0x5d, 0x34, 0x16, 0x3e, 0x96, 0xfb, 0x9a, 0xbe, 0xf0, 0x2e, 0x83, 0xbe, 0x94, 0x90, 0x81, 0x3e, 0xc1, 0xf5, 0x5a, 0xbe, 0xa4, 0x20, 0x59, 0x3e, 0x1c, 0xb3, 0x6d, 0xbd, 0xf2, 0xea, 0x2d, 0x3d, 0x9b, 0xd5, 0x8f, 0x3d, 0x05, 0xdf, 0x28, 0x3e, 0x93, 0xcb, 0x5d, 0xbe, 0x90, 0x46, 0x99, 0xbe, 0xd9, 0xaf, 0x64, 0x3e, 0x9f, 0xb3, 0x17, 0x3e, 0x53, 0xfc, 0x16, 0xbe, 0xe8, 0x19, 0x8b, 0x3e, 0x0a, 0x48, 0x91, 0x3e, 0xd7, 0x62, 0xe0, 0xbb, 0x31, 0x78, 0x0f, 0xbe, 0x34, 0x2c, 0x76, 0xbe, 0x44, 0x0b, 0x3c, 0x3e, 0x7f, 0xa7, 0xe6, 0x3d, 0x38, 0xc8, 0x47, 0x3d, 0xc3, 0xf1, 0x42, 0xbd, 0x7c, 0x00, 0x7d, 0xbd, 0x35, 0x85, 0x0a, 0x3e, 0x02, 0x7f, 0x1c, 0x3e, 0x25, 0xd9, 0x87, 0x3c, 0xae, 0x7a, 0xfc, 0x3d, 0x6b, 0xed, 0x92, 0xbe, 0xff, 0x18, 0xcf, 0x3d, 0xce, 0x05, 0x9f, 0xbe, 0x67, 0x67, 0x94, 0xbe, 0xf4, 0xb0, 0x57, 0x3d, 0xa8, 0x51, 0xb0, 0xbd, 0xa5, 0x89, 0x85, 0xbe, 0xdb, 0xb5, 0x33, 0xbe, 0x37, 0x18, 0xb6, 0x3c, 0xa7, 0x34, 0x48, 0x3e, 0x48, 0xa0, 0x55, 0x3e, 0x10, 0xa6, 0x3f, 0x3e, 0x97, 0x67, 0x78, 0xbe, 0x23, 0xb8, 0x9d, 0xbe, 0xe5, 0xcc, 0x8b, 0xbe, 0x44, 0xb7, 0x8a, 0xbe, 0x47, 0x3f, 0xf3, 0x3b, 0x38, 0xbe, 0x69, 0x3e, 0xbe, 0x03, 0x43, 0xbd, 0x25, 0xbd, 0x7f, 0xbd, 0x0d, 0x23, 0x27, 0x3d, 0x82, 0x3a, 0x15, 0x3c, 0xb7, 0x7e, 0xb4, 0xbd, 0x20, 0x10, 0x0f, 0x3e, 0x2f, 0xaa, 0x04, 0xbe, 0x69, 0xdd, 0x01, 0x3c, 0x0c, 0x46, 0x77, 0x3e, 0x2c, 0x25, 0x47, 0x3e, 0x6c, 0x4a, 0xc6, 0x3c, 0x82, 0x49, 0xe6, 0x3d, 0x15, 0x05, 0xda, 0x3d, 0xc1, 0x82, 0x3b, 0xbd, 0xc6, 0xa7, 0xee, 0xbd, 0xd8, 0x8e, 0xd1, 0x3d, 0x6e, 0x6f, 0x41, 0xbc, 0x94, 0x2e, 0x54, 0xbd, 0x8f, 0x83, 0x8e, 0xbd, 0xd1, 0xdc, 0x75, 0xbe, 0x15, 0x32, 0x83, 0x3e, 0x22, 0xd1, 0xa4, 0xbc, 0xd0, 0xf7, 0x51, 0x3e, 0xa6, 0xee, 0x81, 0xbd, 0x63, 0xeb, 0x3e, 0xbe, 0xa0, 0x33, 0x6b, 0xbc, 0x40, 0x86, 0x3b, 0xbe, 0xdc, 0x53, 0x94, 0xbe, 0x50, 0x08, 0xe8, 0xbd, 0x5d, 0xcc, 0x23, 0x3e, 0x63, 0xc0, 0x41, 0x3e, 0xb7, 0x43, 0x9f, 0xbd, 0x85, 0x43, 0x23, 0xbe, 0x8b, 0x8b, 0x48, 0x3d, 0x48, 0xab, 0xe4, 0xbd, 0x1c, 0xa4, 0x65, 0xbe, 0x72, 0x2e, 0x42, 0xbe, 0x81, 0x2a, 0xac, 0x3d, 0xee, 0x50, 0x02, 0x3e, 0x32, 0x43, 0x6f, 0xbe, 0x07, 0x0f, 0x80, 0xbe, 0xf3, 0x1e, 0x51, 0x3d, 0x00, 0x43, 0x97, 0xbb, 0xc1, 0x35, 0x7f, 0x3e, 0x38, 0x61, 0x39, 0x3e, 0x61, 0x4c, 0x93, 0x3e, 0xd0, 0xc2, 0x48, 0x3d, 0xef, 0xaa, 0x83, 0xbe, 0xb6, 0x67, 0x33, 0x3e, 0xe3, 0x23, 0xfb, 0x3d, 0x8c, 0x79, 0x4e, 0x3e, 0x4d, 0xc1, 0x3c, 0xbd, 0xc9, 0x35, 0xee, 0xbd, 0xb5, 0x18, 0x2c, 0xbe, 0xc5, 0x6d, 0x94, 0xbe, 0x23, 0xfb, 0x6d, 0xbe, 0xc4, 0x31, 0x87, 0x3d, 0x97, 0xd3, 0x18, 0x3e, 0x4c, 0x01, 0x87, 0x3e, 0xd7, 0x9e, 0x71, 0xbe, 0xb4, 0x97, 0x8e, 0xbd, 0x10, 0x1a, 0xa4, 0xbd, 0x00, 0x00, 0x06, 0x00, 0x08, 0x00, 0x04, 0x00, 0x06, 0x00, 0x00, 0x00, 0x04, 0x00, 0x00, 0x00, 0x50, 0x00, 0x00, 0x00, 0xa0, 0xc5, 0x7c, 0xbe, 0x31, 0x20, 0xf5, 0xbe, 0xdd, 0x5f, 0x1d, 0x3e, 0xac, 0xea, 0x7e, 0x3e, 0x8c, 0xe1, 0xa8, 0x3e, 0x26, 0x68, 0x29, 0xbe, 0x18, 0xb8, 0x91, 0x3d, 0xe6, 0x80, 0xa2, 0x3e, 0x32, 0x6e, 0xed, 0x3e, 0x67, 0x0e, 0xa5, 0xbe, 0x90, 0x60, 0x51, 0x3e, 0x84, 0xbd, 0x43, 0xbe, 0x7c, 0x6c, 0x9d, 0xbd, 0x68, 0xbe, 0xfd, 0x3c, 0x21, 0x6a, 0x08, 0x3f, 0xbd, 0x72, 0x2b, 0x3e, 0x23, 0x95, 0xb7, 0x3e, 0xe6, 0x01, 0x09, 0x3f, 0x85, 0xe0, 0x66, 0xbd, 0xba, 0x3e, 0x47, 0x3e, 0x28, 0xfb, 0xff, 0xff, 0x2c, 0xfb, 0xff, 0xff, 0x0f, 0x00, 0x00, 0x00, 0x4d, 0x4c, 0x49, 0x52, 0x20, 0x43, 0x6f, 0x6e, 0x76, 0x65, 0x72, 0x74, 0x65, 0x64, 0x2e, 0x00, 0x01, 0x00, 0x00, 0x00, 0x14, 0x00, 0x00, 0x00, 0x00, 0x00, 0x0e, 0x00, 0x18, 0x00, 0x14, 0x00, 0x10, 0x00, 0x0c, 0x00, 0x08, 0x00, 0x04, 0x00, 0x0e, 0x00, 0x00, 0x00, 0x14, 0x00, 0x00, 0x00, 0x1c, 0x00, 0x00, 0x00, 0xd8, 0x00, 0x00, 0x00, 0xdc, 0x00, 0x00, 0x00, 0xe0, 0x00, 0x00, 0x00, 0x04, 0x00, 0x00, 0x00, 0x6d, 0x61, 0x69, 0x6e, 0x00, 0x00, 0x00, 0x00, 0x03, 0x00, 0x00, 0x00, 0x80, 0x00, 0x00, 0x00, 0x38, 0x00, 0x00, 0x00, 0x04, 0x00, 0x00, 0x00, 0x9a, 0xff, 0xff, 0xff, 0x10, 0x00, 0x00, 0x00, 0x00, 0x00, 0x00, 0x08, 0x0c, 0x00, 0x00, 0x00, 0x10, 0x00, 0x00, 0x00, 0xa4, 0xfb, 0xff, 0xff, 0x01, 0x00, 0x00, 0x00, 0x09, 0x00, 0x00, 0x00, 0x03, 0x00, 0x00, 0x00, 0x08, 0x00, 0x00, 0x00, 0x01, 0x00, 0x00, 0x00, 0x03, 0x00, 0x00, 0x00, 0xca, 0xff, 0xff, 0xff, 0x10, 0x00, 0x00, 0x00, 0x00, 0x00, 0x00, 0x08, 0x10, 0x00, 0x00, 0x00, 0x14, 0x00, 0x00, 0x00, 0xba, 0xff, 0xff, 0xff, 0x00, 0x00, 0x00, 0x01, 0x01, 0x00, 0x00, 0x00, 0x08, 0x00, 0x00, 0x00, 0x03, 0x00, 0x00, 0x00, 0x07, 0x00, 0x00, 0x00, 0x02, 0x00, 0x00, 0x00, 0x04, 0x00, 0x00, 0x00, 0x00, 0x00, 0x0e, 0x00, 0x16, 0x00, 0x00, 0x00, 0x10, 0x00, 0x0c, 0x00, 0x0b, 0x00, 0x04, 0x00, 0x0e, 0x00, 0x00, 0x00, 0x18, 0x00, 0x00, 0x00, 0x00, 0x00, 0x00, 0x08, 0x18, 0x00, 0x00, 0x00, 0x1c, 0x00, 0x00, 0x00, 0x00, 0x00, 0x06, 0x00, 0x08, 0x00, 0x07, 0x00, 0x06, 0x00, 0x00, 0x00, 0x00, 0x00, 0x00, 0x01, 0x01, 0x00, 0x00, 0x00, 0x07, 0x00, 0x00, 0x00, 0x03, 0x00, 0x00, 0x00, 0x00, 0x00, 0x00, 0x00, 0x06, 0x00, 0x00, 0x00, 0x05, 0x00, 0x00, 0x00, 0x01, 0x00, 0x00, 0x00, 0x09, 0x00, 0x00, 0x00, 0x01, 0x00, 0x00, 0x00, 0x00, 0x00, 0x00, 0x00, 0x0a, 0x00, 0x00, 0x00, 0x84, 0x03, 0x00, 0x00, 0x2c, 0x03, 0x00, 0x00, 0xd4, 0x02, 0x00, 0x00, 0x98, 0x02, 0x00, 0x00, 0x5c, 0x02, 0x00, 0x00, 0xfc, 0x01, 0x00, 0x00, 0xa8, 0x01, 0x00, 0x00, 0x04, 0x01, 0x00, 0x00, 0x60, 0x00, 0x00, 0x00, 0x04, 0x00, 0x00, 0x00, 0xba, 0xfc, 0xff, 0xff, 0x00, 0x00, 0x00, 0x01, 0x14, 0x00, 0x00, 0x00, 0x1c, 0x00, 0x00, 0x00, 0x1c, 0x00, 0x00, 0x00, 0x0a, 0x00, 0x00, 0x00, 0x34, 0x00, 0x00, 0x00, 0x02, 0x00, 0x00, 0x00, 0xff, 0xff, 0xff, 0xff, 0x01, 0x00, 0x00, 0x00, 0xa4, 0xfc, 0xff, 0xff, 0x1b, 0x00, 0x00, 0x00, 0x53, 0x74, 0x61, 0x74, 0x65, 0x66, 0x75, 0x6c, 0x50, 0x61, 0x72, 0x74, 0x69, 0x74, 0x69, 0x6f, 0x6e, 0x65, 0x64, 0x43, 0x61, 0x6c, 0x6c, 0x5f, 0x31, 0x3a, 0x30, 0x00, 0x02, 0x00, 0x00, 0x00, 0x01, 0x00, 0x00, 0x00, 0x01, 0x00, 0x00, 0x00, 0x12, 0xfd, 0xff, 0xff, 0x00, 0x00, 0x00, 0x01, 0x14, 0x00, 0x00, 0x00, 0x1c, 0x00, 0x00, 0x00, 0x1c, 0x00, 0x00, 0x00, 0x09, 0x00, 0x00, 0x00, 0x7c, 0x00, 0x00, 0x00, 0x02, 0x00, 0x00, 0x00, 0xff, 0xff, 0xff, 0xff, 0x14, 0x00, 0x00, 0x00, 0xfc, 0xfc, 0xff, 0xff, 0x61, 0x00, 0x00, 0x00, 0x73, 0x65, 0x71, 0x75, 0x65, 0x6e, 0x74, 0x69, 0x61, 0x6c, 0x5f, 0x36, 0x5f, 0x31, 0x2f, 0x64, 0x65, 0x6e, 0x73, 0x65, 0x5f, 0x31, 0x39, 0x5f, 0x31, 0x2f, 0x4d, 0x61, 0x74, 0x4d, 0x75, 0x6c, 0x3b, 0x73, 0x65, 0x71, 0x75, 0x65, 0x6e, 0x74, 0x69, 0x61, 0x6c, 0x5f, 0x36, 0x5f, 0x31, 0x2f, 0x64, 0x65, 0x6e, 0x73, 0x65, 0x5f, 0x31, 0x39, 0x5f, 0x31, 0x2f, 0x52, 0x65, 0x6c, 0x75, 0x3b, 0x73, 0x65, 0x71, 0x75, 0x65, 0x6e, 0x74, 0x69, 0x61, 0x6c, 0x5f, 0x36, 0x5f, 0x31, 0x2f, 0x64, 0x65, 0x6e, 0x73, 0x65, 0x5f, 0x31, 0x39, 0x5f, 0x31, 0x2f, 0x42, 0x69, 0x61, 0x73, 0x41, 0x64, 0x64, 0x00, 0x00, 0x00, 0x02, 0x00, 0x00, 0x00, 0x01, 0x00, 0x00, 0x00, 0x14, 0x00, 0x00, 0x00, 0xb2, 0xfd, 0xff, 0xff, 0x00, 0x00, 0x00, 0x01, 0x14, 0x00, 0x00, 0x00, 0x1c, 0x00, 0x00, 0x00, 0x1c, 0x00, 0x00, 0x00, 0x08, 0x00, 0x00, 0x00, 0x7c, 0x00, 0x00, 0x00, 0x02, 0x00, 0x00, 0x00, 0xff, 0xff, 0xff, 0xff, 0x32, 0x00, 0x00, 0x00, 0x9c, 0xfd, 0xff, 0xff, 0x61, 0x00, 0x00, 0x00, 0x73, 0x65, 0x71, 0x75, 0x65, 0x6e, 0x74, 0x69, 0x61, 0x6c, 0x5f, 0x36, 0x5f, 0x31, 0x2f, 0x64, 0x65, 0x6e, 0x73, 0x65, 0x5f, 0x31, 0x38, 0x5f, 0x31, 0x2f, 0x4d, 0x61, 0x74, 0x4d, 0x75, 0x6c, 0x3b, 0x73, 0x65, 0x71, 0x75, 0x65, 0x6e, 0x74, 0x69, 0x61, 0x6c, 0x5f, 0x36, 0x5f, 0x31, 0x2f, 0x64, 0x65, 0x6e, 0x73, 0x65, 0x5f, 0x31, 0x38, 0x5f, 0x31, 0x2f, 0x52, 0x65, 0x6c, 0x75, 0x3b, 0x73, 0x65, 0x71, 0x75, 0x65, 0x6e, 0x74, 0x69, 0x61, 0x6c, 0x5f, 0x36, 0x5f, 0x31, 0x2f, 0x64, 0x65, 0x6e, 0x73, 0x65, 0x5f, 0x31, 0x38, 0x5f, 0x31, 0x2f, 0x42, 0x69, 0x61, 0x73, 0x41, 0x64, 0x64, 0x00, 0x00, 0x00, 0x02, 0x00, 0x00, 0x00, 0x01, 0x00, 0x00, 0x00, 0x32, 0x00, 0x00, 0x00, 0xa6, 0xfe, 0xff, 0xff, 0x00, 0x00, 0x00, 0x01, 0x10, 0x00, 0x00, 0x00, 0x10, 0x00, 0x00, 0x00, 0x07, 0x00, 0x00, 0x00, 0x30, 0x00, 0x00, 0x00, 0x2c, 0xfe, 0xff, 0xff, 0x20, 0x00, 0x00, 0x00, 0x73, 0x65, 0x71, 0x75, 0x65, 0x6e, 0x74, 0x69, 0x61, 0x6c, 0x5f, 0x36, 0x5f, 0x31, 0x2f, 0x64, 0x65, 0x6e, 0x73, 0x65, 0x5f, 0x31, 0x38, 0x5f, 0x31, 0x2f, 0x4d, 0x61, 0x74, 0x4d, 0x75, 0x6c, 0x00, 0x00, 0x00, 0x00, 0x02, 0x00, 0x00, 0x00, 0x32, 0x00, 0x00, 0x00, 0x07, 0x00, 0x00, 0x00, 0xf6, 0xfe, 0xff, 0xff, 0x00, 0x00, 0x00, 0x01, 0x10, 0x00, 0x00, 0x00, 0x10, 0x00, 0x00, 0x00, 0x06, 0x00, 0x00, 0x00, 0x40, 0x00, 0x00, 0x00, 0x7c, 0xfe, 0xff, 0xff, 0x30, 0x00, 0x00, 0x00, 0x73, 0x65, 0x71, 0x75, 0x65, 0x6e, 0x74, 0x69, 0x61, 0x6c, 0x5f, 0x36, 0x5f, 0x31, 0x2f, 0x64, 0x65, 0x6e, 0x73, 0x65, 0x5f, 0x31, 0x38, 0x5f, 0x31, 0x2f, 0x42, 0x69, 0x61, 0x73, 0x41, 0x64, 0x64, 0x2f, 0x52, 0x65, 0x61, 0x64, 0x56, 0x61, 0x72, 0x69, 0x61, 0x62, 0x6c, 0x65, 0x4f, 0x70, 0x00, 0x00, 0x00, 0x00, 0x01, 0x00, 0x00, 0x00, 0x32, 0x00, 0x00, 0x00, 0x52, 0xff, 0xff, 0xff, 0x00, 0x00, 0x00, 0x01, 0x10, 0x00, 0x00, 0x00, 0x10, 0x00, 0x00, 0x00, 0x05, 0x00, 0x00, 0x00, 0x1c, 0x00, 0x00, 0x00, 0xd8, 0xfe, 0xff, 0xff, 0x0f, 0x00, 0x00, 0x00, 0x61, 0x72, 0x69, 0x74, 0x68, 0x2e, 0x63, 0x6f, 0x6e, 0x73, 0x74, 0x61, 0x6e, 0x74, 0x33, 0x00, 0x01, 0x00, 0x00, 0x00, 0x14, 0x00, 0x00, 0x00, 0x8a, 0xff, 0xff, 0xff, 0x00, 0x00, 0x00, 0x01, 0x10, 0x00, 0x00, 0x00, 0x10, 0x00, 0x00, 0x00, 0x04, 0x00, 0x00, 0x00, 0x1c, 0x00, 0x00, 0x00, 0x10, 0xff, 0xff, 0xff, 0x0f, 0x00, 0x00, 0x00, 0x61, 0x72, 0x69, 0x74, 0x68, 0x2e, 0x63, 0x6f, 0x6e, 0x73, 0x74, 0x61, 0x6e, 0x74, 0x32, 0x00, 0x01, 0x00, 0x00, 0x00, 0x01, 0x00, 0x00, 0x00, 0xc2, 0xff, 0xff, 0xff, 0x00, 0x00, 0x00, 0x01, 0x10, 0x00, 0x00, 0x00, 0x10, 0x00, 0x00, 0x00, 0x03, 0x00, 0x00, 0x00, 0x1c, 0x00, 0x00, 0x00, 0x48, 0xff, 0xff, 0xff, 0x0f, 0x00, 0x00, 0x00, 0x61, 0x72, 0x69, 0x74, 0x68, 0x2e, 0x63, 0x6f, 0x6e, 0x73, 0x74, 0x61, 0x6e, 0x74, 0x31, 0x00, 0x02, 0x00, 0x00, 0x00, 0x14, 0x00, 0x00, 0x00, 0x32, 0x00, 0x00, 0x00, 0x00, 0x00, 0x16, 0x00, 0x18, 0x00, 0x14, 0x00, 0x00, 0x00, 0x10, 0x00, 0x0c, 0x00, 0x08, 0x00, 0x00, 0x00, 0x00, 0x00, 0x00, 0x00, 0x07, 0x00, 0x16, 0x00, 0x00, 0x00, 0x00, 0x00, 0x00, 0x01, 0x10, 0x00, 0x00, 0x00, 0x10, 0x00, 0x00, 0x00, 0x02, 0x00, 0x00, 0x00, 0x1c, 0x00, 0x00, 0x00, 0x9c, 0xff, 0xff, 0xff, 0x0e, 0x00, 0x00, 0x00, 0x61, 0x72, 0x69, 0x74, 0x68, 0x2e, 0x63, 0x6f, 0x6e, 0x73, 0x74, 0x61, 0x6e, 0x74, 0x00, 0x00, 0x02, 0x00, 0x00, 0x00, 0x01, 0x00, 0x00, 0x00, 0x14, 0x00, 0x00, 0x00, 0x00, 0x00, 0x16, 0x00, 0x1c, 0x00, 0x18, 0x00, 0x00, 0x00, 0x14, 0x00, 0x10, 0x00, 0x0c, 0x00, 0x00, 0x00, 0x00, 0x00, 0x08, 0x00, 0x07, 0x00, 0x16, 0x00, 0x00, 0x00, 0x00, 0x00, 0x00, 0x01, 0x14, 0x00, 0x00, 0x00, 0x20, 0x00, 0x00, 0x00, 0x20, 0x00, 0x00, 0x00, 0x01, 0x00, 0x00, 0x00, 0x40, 0x00, 0x00, 0x00, 0x02, 0x00, 0x00, 0x00, 0xff, 0xff, 0xff, 0xff, 0x07, 0x00, 0x00, 0x00, 0x04, 0x00, 0x04, 0x00, 0x04, 0x00, 0x00, 0x00, 0x21, 0x00, 0x00, 0x00, 0x73, 0x65, 0x72, 0x76, 0x69, 0x6e, 0x67, 0x5f, 0x64, 0x65, 0x66, 0x61, 0x75, 0x6c, 0x74, 0x5f, 0x6b, 0x65, 0x72, 0x61, 0x73, 0x5f, 0x74, 0x65, 0x6e, 0x73, 0x6f, 0x72, 0x5f, 0x34, 0x32, 0x3a, 0x30, 0x00, 0x00, 0x00, 0x02, 0x00, 0x00, 0x00, 0x01, 0x00, 0x00, 0x00, 0x07, 0x00, 0x00, 0x00, 0x01, 0x00, 0x00, 0x00, 0x10, 0x00, 0x00, 0x00, 0x0c, 0x00, 0x0c, 0x00, 0x0b, 0x00, 0x00, 0x00, 0x00, 0x00, 0x04, 0x00, 0x0c, 0x00, 0x00, 0x00, 0x09, 0x00, 0x00, 0x00, 0x00, 0x00, 0x00, 0x09 };