#pragma once

#ifdef __has_attribute
#define HAVE_ATTRIBUTE(x) __has_attribute(x)
#else
#define HAVE_ATTRIBUTE(x) 0
#endif
#if HAVE_ATTRIBUTE(aligned) || (defined(__GNUC__) && !defined(__clang__))
#define DATA_ALIGN_ATTRIBUTE __attribute__((aligned(4)))
#else
#define DATA_ALIGN_ATTRIBUTE
#endif

// automatically configure network
#define TF_NUM_INPUTS 7
#define TF_NUM_OUTPUTS 1
#define TF_NUM_OPS 1
#define TF_OP_FULLYCONNECTED




// sample data
float x0[7] = {0.28367346939f, 0.71428571429f, 0.91304347826f, 0.04109589041f, 0.22099447514f, 0.73938294011f, 0.61595044522f};


/** model size = 7660 bytes **/
const unsigned char modelANN[] DATA_ALIGN_ATTRIBUTE = { 0x1c, 0x00, 0x00, 0x00, 0x54, 0x46, 0x4c, 0x33, 0x14, 0x00, 0x20, 0x00, 0x1c, 0x00, 0x18, 0x00, 0x14, 0x00, 0x10, 0x00, 0x0c, 0x00, 0x00, 0x00, 0x08, 0x00, 0x04, 0x00, 0x14, 0x00, 0x00, 0x00, 0x1c, 0x00, 0x00, 0x00, 0x98, 0x00, 0x00, 0x00, 0xf0, 0x00, 0x00, 0x00, 0x94, 0x18, 0x00, 0x00, 0xa4, 0x18, 0x00, 0x00, 0x98, 0x1d, 0x00, 0x00, 0x03, 0x00, 0x00, 0x00, 0x01, 0x00, 0x00, 0x00, 0x10, 0x00, 0x00, 0x00, 0x00, 0x00, 0x0a, 0x00, 0x10, 0x00, 0x0c, 0x00, 0x08, 0x00, 0x04, 0x00, 0x0a, 0x00, 0x00, 0x00, 0x0c, 0x00, 0x00, 0x00, 0x1c, 0x00, 0x00, 0x00, 0x3c, 0x00, 0x00, 0x00, 0x0f, 0x00, 0x00, 0x00, 0x73, 0x65, 0x72, 0x76, 0x69, 0x6e, 0x67, 0x5f, 0x64, 0x65, 0x66, 0x61, 0x75, 0x6c, 0x74, 0x00, 0x01, 0x00, 0x00, 0x00, 0x04, 0x00, 0x00, 0x00, 0x90, 0xff, 0xff, 0xff, 0x09, 0x00, 0x00, 0x00, 0x04, 0x00, 0x00, 0x00, 0x08, 0x00, 0x00, 0x00, 0x6f, 0x75, 0x74, 0x70, 0x75, 0x74, 0x5f, 0x30, 0x00, 0x00, 0x00, 0x00, 0x01, 0x00, 0x00, 0x00, 0x04, 0x00, 0x00, 0x00, 0x4a, 0xe8, 0xff, 0xff, 0x04, 0x00, 0x00, 0x00, 0x0f, 0x00, 0x00, 0x00, 0x6b, 0x65, 0x72, 0x61, 0x73, 0x5f, 0x74, 0x65, 0x6e, 0x73, 0x6f, 0x72, 0x5f, 0x32, 0x38, 0x00, 0x02, 0x00, 0x00, 0x00, 0x34, 0x00, 0x00, 0x00, 0x04, 0x00, 0x00, 0x00, 0xdc, 0xff, 0xff, 0xff, 0x0c, 0x00, 0x00, 0x00, 0x04, 0x00, 0x00, 0x00, 0x13, 0x00, 0x00, 0x00, 0x43, 0x4f, 0x4e, 0x56, 0x45, 0x52, 0x53, 0x49, 0x4f, 0x4e, 0x5f, 0x4d, 0x45, 0x54, 0x41, 0x44, 0x41, 0x54, 0x41, 0x00, 0x08, 0x00,0x0c, 0x00, 0x08, 0x00, 0x04, 0x00, 0x08, 0x00, 0x00, 0x00, 0x0b, 0x00, 0x00, 0x00, 0x04,0x00, 0x00, 0x00, 0x13, 0x00, 0x00, 0x00, 0x6d, 0x69, 0x6e, 0x5f, 0x72, 0x75, 0x6e, 0x74, 0x69, 0x6d, 0x65, 0x5f, 0x76, 0x65, 0x72, 0x73, 0x69, 0x6f, 0x6e, 0x00, 0x0d, 0x00, 0x00, 0x00, 0xa0, 0x17, 0x00, 0x00, 0x98, 0x17, 0x00, 0x00, 0x38, 0x17, 0x00, 0x00, 0x80, 0x07, 0x00, 0x00, 0x6c, 0x07, 0x00, 0x00, 0x0c, 0x07, 0x00, 0x00, 0x34, 0x06, 0x00, 0x00, 0xac, 0x00, 0x00, 0x00, 0xa4, 0x00, 0x00, 0x00, 0x9c, 0x00, 0x00, 0x00, 0x94, 0x00, 0x00, 0x00, 0x74, 0x00, 0x00, 0x00, 0x04, 0x00, 0x00, 0x00, 0xfa, 0xe8, 0xff, 0xff, 0x04, 0x00, 0x00, 0x00, 0x60, 0x00, 0x00, 0x00, 0x10, 0x00, 0x00, 0x00, 0x00, 0x00, 0x00, 0x00, 0x08, 0x00, 0x0e, 0x00, 0x08, 0x00, 0x04, 0x00, 0x08, 0x00, 0x00, 0x00, 0x10, 0x00, 0x00, 0x00, 0x24, 0x00, 0x00, 0x00, 0x00, 0x00, 0x06, 0x00, 0x08, 0x00, 0x04, 0x00, 0x06, 0x00, 0x00, 0x00, 0x04, 0x00, 0x00, 0x00, 0x00, 0x00, 0x00, 0x00, 0x0c, 0x00, 0x18, 0x00, 0x14, 0x00, 0x10, 0x00, 0x0c, 0x00, 0x04, 0x00, 0x0c, 0x00, 0x00, 0x00, 0x9d, 0x9a, 0xaa, 0x06, 0x99, 0x1d, 0x02, 0xda, 0x02, 0x00, 0x00, 0x00, 0x02, 0x00, 0x00, 0x00, 0x04, 0x00, 0x00, 0x00, 0x06, 0x00, 0x00, 0x00, 0x32, 0x2e, 0x31, 0x38, 0x2e, 0x30, 0x00, 0x00, 0x66, 0xe9, 0xff, 0xff, 0x04, 0x00, 0x00, 0x00, 0x10, 0x00, 0x00, 0x00, 0x31, 0x2e, 0x35, 0x2e, 0x30, 0x00, 0x00, 0x00, 0x00, 0x00, 0x00, 0x00, 0x00, 0x00, 0x00, 0x00, 0x48, 0xe4, 0xff, 0xff, 0x4c, 0xe4, 0xff, 0xff, 0x50, 0xe4, 0xff, 0xff, 0x8e, 0xe9, 0xff, 0xff, 0x04, 0x00, 0x00, 0x00, 0x78, 0x05, 0x00, 0x00, 0xe1, 0x30, 0x91, 0x3e, 0xe8, 0x4e, 0x17, 0x3e, 0x80, 0xe2, 0x41, 0xbe, 0x00, 0x61, 0x47, 0xbc, 0x28, 0x92, 0x79, 0xbe, 0xfc, 0x09, 0x3b, 0xbe, 0x51, 0x60, 0x9b, 0xbe, 0x62, 0x91, 0xfd, 0xbd, 0xdc, 0x88, 0xb3, 0xbd, 0x32, 0x17, 0x4b, 0xbe, 0x4f, 0x20, 0x54, 0xbe, 0xbb, 0x0b, 0x11, 0xbe, 0xc2, 0x31, 0x15, 0x3e, 0xb5, 0x64, 0x3b, 0xbe, 0x00, 0x8e, 0x20, 0xbe, 0xf1, 0xfe, 0x91, 0x3c, 0xce, 0xfd, 0x61, 0xbe, 0x3d, 0x18, 0x08, 0x3e, 0x18, 0x58, 0x84, 0x3e, 0xb2, 0x27, 0xdb, 0x3e, 0xac, 0xfe, 0x0a, 0x3d, 0xec, 0x5d, 0xbd, 0x3e, 0x5e, 0x78, 0xc5, 0x3e, 0x0b, 0x0b, 0x3e, 0x3d, 0x6a, 0x78, 0x03, 0xbd, 0x13, 0x64, 0x95, 0x3d, 0xb7, 0x78, 0x12, 0x3c, 0xb2, 0x51, 0xbc, 0x3e, 0x86, 0xff, 0xb0, 0xbd, 0x01, 0xbf, 0x84, 0xbe, 0xd8, 0x20, 0x0c, 0x3d, 0xc0, 0xfb, 0x21, 0xbe, 0x70, 0xe6, 0x5e, 0xbe, 0x48, 0x2a, 0x09, 0xbd, 0x98, 0xef, 0x3e, 0xbd, 0x29, 0xc1, 0x4b, 0xbe, 0x60, 0xd1, 0xef, 0xbc, 0x8b, 0x12, 0x9f, 0xbe, 0xb1, 0x71, 0xa1, 0x3e, 0x49, 0xa8, 0x28, 0xbe, 0x3b, 0x46, 0x94, 0xbe, 0x7c, 0xce, 0xa0, 0xbd, 0xce, 0x60, 0x5c, 0xbe, 0x2d, 0x5b, 0x91, 0x3e, 0xb1, 0x16, 0x89, 0x3e, 0xe9, 0x65, 0x17, 0xbe, 0x5e, 0x92, 0x94, 0xbd, 0x1d, 0xc0, 0x91, 0x3e, 0x0c, 0x39, 0xa5, 0x3e, 0x60, 0x04, 0x2e, 0xbe, 0xed, 0x68, 0x1a, 0x3a, 0x86, 0xbc, 0xd9, 0x3d, 0x56, 0xeb, 0x17, 0xbe, 0xb9, 0x09, 0x9c, 0xbe, 0xef, 0x5e, 0x4b, 0xbe, 0x4f, 0x37, 0x1c, 0x3e, 0x0f, 0x17, 0x67, 0x3e, 0xd4, 0xf1, 0x72, 0x3d, 0x60, 0xb9, 0x79, 0xbd, 0xcd, 0xad, 0x99, 0x3d, 0xb4, 0x77, 0xdc, 0x3e, 0xab, 0x9a, 0x96, 0xbe, 0x50, 0xa9, 0x8e, 0x3e, 0x11, 0x13, 0x1e, 0xbe, 0x1f, 0x3c, 0xc3, 0x3e, 0xaa, 0xec, 0xae, 0x3e, 0x7e, 0xd6, 0xa4, 0x3d, 0x9f, 0x11, 0xbc, 0x3e, 0xd8, 0x63, 0x63, 0x3e, 0x7a, 0x9b, 0x06, 0xbe, 0xbd, 0x37, 0x82, 0xbe, 0x60, 0x0c, 0x01, 0xbe, 0x63, 0x1f, 0xc9, 0x3d, 0x09, 0x01, 0x89, 0x3d, 0x72, 0xd4, 0xb8, 0xbe, 0x26, 0x9f, 0x22, 0x3e, 0xe1, 0x9b, 0x33, 0xbd, 0xa6, 0xdf, 0x89, 0x3e, 0x5c, 0x55, 0x45, 0x3e, 0xdc, 0xf1, 0x03, 0xbb, 0x71, 0x27, 0x1c, 0x3e, 0x66, 0x0a, 0xb6, 0xbe, 0x22, 0x47, 0xd4, 0xbd, 0xe0, 0x1b, 0xa1, 0xbe, 0x5c, 0xe8, 0x9b, 0x3e, 0x05, 0x13, 0x08, 0x3e, 0x4a, 0x18, 0x99, 0xbc, 0x8c, 0xfb, 0xb6, 0x3d, 0xed, 0x1d, 0xfa, 0x3c, 0x34, 0x44, 0x1e, 0x3d, 0xb1, 0x50, 0x7f, 0xbe, 0xe3, 0xf1, 0x94, 0xbe, 0x89, 0xd1, 0xab, 0x3e, 0x7b, 0x2c, 0x4c, 0x3e, 0x32, 0x34, 0x2c, 0xbe, 0xeb, 0xa8, 0x03, 0xbe, 0xf7, 0x95, 0x38, 0xbe, 0x3f, 0xd3, 0x42, 0x3e, 0x0a, 0xf3, 0xf5, 0x3d, 0x39, 0xf8, 0x83, 0x3e, 0xe0, 0x3c, 0x3c, 0xbe, 0xe9, 0xff, 0x01, 0xbd, 0x19, 0x7d, 0xcb, 0x3e, 0x01, 0x62, 0x1c, 0x3d, 0x25, 0x18, 0xa8, 0x3d, 0x60, 0xdc, 0xa9, 0x3e, 0xfc, 0x7a, 0x8f, 0x3e, 0x67, 0x5d, 0x0e, 0x3e, 0x4f, 0x4a, 0xb6, 0xbe, 0xf0, 0x19, 0xdd, 0x3e, 0xed, 0xc4, 0x3d, 0x3e, 0x7e, 0xe2, 0x89, 0x3d, 0xcc, 0xbb, 0x89, 0xbe, 0x39, 0xfc, 0x4b, 0x3d, 0x12, 0xc0, 0x73, 0xbe, 0xc2, 0x97, 0xb3, 0xbd, 0x72, 0xe3, 0x46, 0xbe, 0x5c, 0x80, 0x68, 0xbe, 0x02, 0x92, 0x58, 0x3e, 0x1e, 0x26, 0x68, 0xbe, 0x05, 0x15, 0xae, 0x3e, 0xe7, 0x19, 0xbe, 0xbc, 0xc7, 0xfc, 0x5f, 0xbe, 0x24, 0xf7, 0x9f, 0xbd, 0x89, 0x82, 0x3b, 0x3e, 0xce, 0x4c, 0xb5, 0x3e, 0xb5, 0x99, 0x82, 0x3e, 0x0a, 0x90, 0x2d, 0x3e, 0x60, 0x90, 0xd9, 0x3d, 0xf8, 0x1b, 0xba, 0xbe, 0x74, 0x60, 0xc5, 0x3e, 0x5b, 0xcf, 0x11, 0xbc, 0x14, 0x8c, 0xa1, 0x3e, 0x30, 0xe4, 0xf3, 0xbd, 0x90, 0xef, 0xcc, 0x3c, 0x16, 0x0d, 0x8b, 0xbe, 0xfe, 0x74, 0x54, 0x3e, 0x2d, 0xc6, 0xa5, 0xbe, 0x60, 0x51, 0x04, 0xbd, 0x4c, 0x2e, 0x95, 0xbe, 0x07, 0xc4, 0x14, 0x3e, 0x37, 0xbd, 0x32, 0x3e, 0x9d, 0xd9, 0x01, 0x3e, 0xe6, 0xbe, 0x61, 0xbe, 0x9c, 0x6c, 0x4b, 0x3d, 0xa4, 0xde, 0x4d, 0x3d, 0xa4, 0x0d, 0x89, 0x3e, 0xf9, 0x88, 0x58, 0x3e, 0x1d, 0x6c, 0x4e, 0x3e, 0xcc, 0xbe, 0xbe, 0xbd, 0x23, 0x3a, 0x69, 0xbe, 0x71, 0xb7, 0xe6, 0x3d, 0x7c, 0x47, 0xa4, 0xbc, 0xd8, 0xc0, 0x06, 0x3e, 0xc7, 0x93, 0x76, 0xbe, 0x00, 0xed, 0x86, 0xbe, 0xfc, 0xb7, 0x9d, 0x3b, 0x45, 0x0a, 0x81, 0x3e, 0x05, 0xa7, 0x19, 0x3e, 0x59, 0xeb, 0x19, 0x3d, 0xd2, 0xfe, 0x9c, 0x3e, 0xee, 0x5a, 0xc2, 0xbd, 0xfc, 0x9a, 0x9c, 0xbe, 0x83, 0xfe, 0x2d, 0xbe, 0x21, 0x2b, 0x48, 0xbe, 0x3d, 0xef, 0x93, 0x3e, 0x2a, 0x83, 0x09, 0xbe, 0xd6, 0xf0, 0x96, 0xbe, 0x6c, 0xd8, 0x9b, 0xbc, 0xd6, 0xd5, 0x03, 0x3d, 0xf4, 0xa5, 0x25, 0x3d, 0x5f, 0xac, 0x6e, 0xbe, 0x0b, 0xa6, 0x41, 0xbe, 0xbc, 0x01, 0xd9, 0x3e, 0x6d, 0xb2, 0xb1, 0x3e, 0x06, 0x73, 0x9b, 0x3d, 0x85, 0x78, 0x4f, 0xbd, 0xb7, 0xbf, 0x4a, 0xbd, 0xea, 0xf0, 0xb8, 0x3d, 0xc1, 0x5b, 0xc9, 0x3e, 0xaa, 0x31, 0x46, 0x3e, 0x6b, 0x6b, 0x86, 0x3e, 0x8f, 0x23, 0x3d, 0xbe, 0xc3, 0xab, 0x51, 0x3e, 0x74, 0x8f, 0x1a, 0x3e, 0x92, 0x0b, 0x57, 0x3e, 0xf3, 0xe1, 0x51, 0xbe, 0xfb, 0x13, 0xbd, 0x3e, 0x07, 0xc5, 0x2c, 0x3c, 0xc7, 0x3b, 0x9c, 0x3e, 0xb2, 0xc3, 0xc4, 0xbc, 0xe0, 0x14, 0x89, 0xbe, 0x5a, 0x56, 0xd8, 0xbd, 0x34, 0x37, 0x7c, 0xbd, 0x45, 0xab, 0x10, 0xbe, 0xb2, 0xe2, 0x48, 0x3e, 0x01, 0x73, 0x14, 0xbe, 0xf9, 0x6b, 0x20, 0xbe, 0x96, 0x90, 0x92, 0xbe, 0x07, 0xda, 0xa5, 0xbe, 0x5a, 0xd1, 0x42, 0xbe, 0xa2, 0xae, 0x9f, 0xbe, 0x70, 0x37, 0x20, 0x3e, 0xb7, 0x5a, 0xa3, 0xbe, 0x90, 0x7d, 0x91, 0xbc, 0x20, 0x67, 0x2a, 0x3e, 0x23, 0x61, 0x14, 0xbe, 0xb0, 0xaf, 0x74, 0x3d, 0xd8, 0xa8, 0x50, 0xbd, 0xbc, 0x72, 0x74, 0xbe, 0x06, 0xde, 0x8f, 0xbd, 0xde, 0x92, 0x04, 0x3e, 0x23, 0x11, 0x45, 0xbe, 0xdc, 0xd4, 0x81, 0x3e, 0x53, 0x22, 0x9e, 0x3d, 0xda, 0x60, 0x43, 0xbe, 0x08, 0x57, 0xc1, 0x3d, 0x3d, 0x30, 0x92, 0x3e, 0x3e, 0xd2, 0x8e, 0xbe, 0xd9, 0x50, 0x45, 0xbe, 0xd0, 0xf5, 0x78, 0xbe, 0x90, 0xbf, 0xeb, 0xbc, 0x00, 0xfc, 0x72, 0xba, 0x96, 0xac, 0xd4, 0xbd, 0x8b, 0xa6, 0xa2, 0x3c, 0xfb, 0xbb, 0x21, 0x3d, 0x23, 0xfd, 0xa9, 0xbd, 0xcb, 0x97, 0x3f, 0x3e, 0xe0, 0x99, 0xb5, 0xbd, 0x0f, 0x77, 0x9d, 0x3e, 0x91, 0x03, 0x71, 0x3e, 0xfd, 0xab, 0xdb, 0x3e, 0xfe, 0xbc, 0xc6, 0x3d, 0x83, 0x9e, 0x3d, 0xbe, 0xe2, 0xc6, 0xa4, 0xbc, 0x42, 0xc0, 0x2b, 0x3e, 0xbf, 0x93, 0xe0, 0x3c, 0x1c, 0x67, 0x8f, 0xbd, 0x0f, 0x66, 0x96, 0xbe, 0x4d, 0xa6, 0x3e, 0x3e, 0x03, 0x1e, 0x88, 0x3e, 0x9b, 0x4b, 0x91, 0x3e, 0x99, 0x2a, 0x8a, 0x3e, 0xae, 0x13, 0x5a, 0x3d, 0x29, 0x07, 0x70, 0x3d, 0xa3, 0xc7, 0x4b, 0xbe, 0x09, 0x02, 0xc0, 0xbd, 0x6f, 0x2f, 0xaf, 0x3e, 0x7f, 0x6f, 0xb3, 0x3d, 0x92, 0x69, 0x51, 0xbe, 0xd8, 0xcf, 0x62, 0x3d, 0x74, 0x1f, 0xa0, 0x3e, 0x6a, 0xed, 0x53, 0xbe, 0xbc, 0x9e, 0x73, 0xbe, 0xc4, 0xcd, 0xfb, 0xbd, 0xf8, 0xfd, 0x1a, 0x3d, 0x00, 0x07, 0x37, 0x3c, 0xf8, 0x78, 0x8e, 0xbd, 0xc0, 0x65, 0xff, 0xbb, 0x5e, 0x5e, 0x5b, 0x3e, 0xea, 0xcd, 0xe5, 0xbd, 0x6b, 0x30, 0x9e, 0x3e, 0xfc, 0xc7, 0xa0, 0xbe, 0xb9, 0x2e, 0x13, 0x3c, 0xfc, 0x5c, 0xf5, 0xbd, 0xe5, 0x45, 0xc3, 0xbe, 0x82, 0x43, 0x7c, 0xbd, 0x90, 0x31, 0x7e, 0x3e, 0x74, 0x3f, 0xcc, 0xb9, 0x71, 0x92, 0x9f, 0x3e, 0xd9, 0x71, 0xf3, 0xbc, 0x1b, 0xc4, 0x87, 0x3e, 0x2c, 0xe1, 0x6c, 0xbe, 0xb1, 0xad, 0xc2, 0x3e, 0x3e, 0x59, 0xd6, 0x3d, 0x64, 0x5c, 0xde, 0xbc, 0x46, 0x83, 0x58, 0x3e, 0x84, 0x1f, 0x94, 0x3e, 0xaf, 0x40, 0x5c, 0xbe, 0x74, 0xbc, 0x05, 0xba, 0x6c, 0x13, 0x70, 0xbe, 0x1a, 0x0b, 0xca, 0x3d, 0xe1, 0x2b, 0xf8, 0x3c, 0xee, 0x16, 0x84, 0x3e, 0xbc, 0x40, 0xb1, 0xbe, 0x55, 0x38, 0xb5, 0xbc, 0xf9, 0x1e, 0x92, 0x3e, 0xc5, 0xd4, 0x81, 0xbd, 0x1c, 0x92, 0xb5, 0xbd, 0x1b, 0xe3, 0x1e, 0xbe, 0xc3, 0x67, 0x28, 0x3d, 0xa3, 0xe9, 0x82, 0x3e, 0x54, 0x8f, 0x54, 0x3e, 0x6e, 0x71, 0xc8, 0x3e, 0xa0, 0x49, 0xdf, 0x3e, 0xec, 0x21, 0xc4, 0x3c, 0xca, 0xaf, 0xab, 0x3e, 0xee, 0x57, 0x78, 0xbc, 0x59, 0xe2, 0x49, 0x3e, 0xb4, 0x65, 0xaa, 0x3e, 0x5a, 0x79, 0xc8, 0x3d, 0x97, 0x83, 0xf0, 0xbd, 0xfb, 0x2f, 0x35, 0xbe, 0xd6, 0x32, 0x77, 0x3e, 0xcd, 0xe4, 0x8f, 0x3c, 0x51, 0x98, 0xbf, 0x3e, 0x77, 0x0e, 0x60, 0xbe, 0x8b, 0xd2, 0xa8, 0x3d, 0xc3, 0xaa, 0x45, 0xbe, 0x81, 0x4b, 0x3f, 0xbe, 0xf0, 0xf3, 0x32, 0x3e, 0x7a, 0x7e, 0xfe, 0xbd, 0x1f, 0xc0, 0x91, 0xbe, 0xdf, 0xc1, 0x2b, 0xbe, 0x58, 0xa7, 0x8d, 0x3d, 0x80, 0x7b, 0xca, 0x3d, 0xd0, 0x5d, 0x31, 0x3e, 0xe4, 0x2a, 0x49, 0xbe, 0x00, 0xf8, 0x09, 0xba, 0x00, 0x2e, 0xbc, 0xbd, 0x7b, 0x22, 0xa4, 0xbe, 0x2a, 0x3d, 0x6d, 0xbe, 0xec, 0xa7, 0x01, 0xbe, 0x0f, 0x53, 0x8a, 0xbe, 0x0c, 0x3c, 0xad, 0x3d, 0x08, 0x3b, 0x60, 0xbd, 0xe6, 0x71, 0x28, 0xbe, 0xa0, 0xd5, 0x87, 0xbd, 0x2e, 0xb6, 0x46, 0x3e, 0x17, 0x6a, 0x0e, 0x3e, 0x25, 0xb8, 0x16, 0x3e, 0x9f, 0x06, 0x08, 0xbd, 0x22, 0xcb, 0x81, 0x3e, 0x2e, 0x52, 0xbb, 0x3e, 0x68, 0x96, 0xde, 0x3d, 0x76, 0x76, 0x98, 0xbe, 0xe7, 0x27, 0x19, 0x3b, 0x38, 0x36, 0x23, 0x3e, 0xcc, 0x2e, 0xcf, 0x3e, 0xc6, 0xd3, 0x19, 0xbd, 0xbf, 0x3c, 0x23, 0x3e, 0xe4, 0x0f, 0xf6, 0xbd, 0x44, 0x62, 0x9f, 0xbe, 0x1f, 0x30, 0x6b, 0x3e, 0x2d, 0xd7, 0x0a, 0x3d, 0xc8, 0x2c, 0x9f, 0x3e, 0xa3, 0x56, 0x58, 0x3e, 0x5c, 0x33, 0xb6, 0x3d, 0x1b, 0xda, 0xad, 0xbd, 0x5f, 0x34, 0x39, 0xbc, 0x12, 0xef, 0xff, 0xff, 0x04, 0x00, 0x00, 0x00, 0xc8, 0x00, 0x00, 0x00, 0x00, 0x00, 0x00, 0x00, 0x00, 0x00, 0x00, 0x00, 0x0b, 0xe6, 0xdc, 0x3d, 0x2c, 0x47, 0xf9, 0x3d, 0x00, 0x00, 0x00, 0x00, 0x00, 0x00, 0x00, 0x00, 0x70, 0x84, 0xc4, 0x3d, 0x0f, 0xdd, 0x19, 0xbd, 0x7c, 0x65, 0xe2, 0x3d, 0x38, 0x0e, 0xc6, 0x3d, 0x8a, 0x56, 0x75, 0xbd, 0xb1, 0xb7, 0x33, 0xbd, 0x90, 0x97, 0xba, 0x3d, 0xeb, 0xd9, 0x52, 0x3d, 0xa2, 0x08, 0xd0, 0x3d, 0x2f, 0xa3, 0xcd, 0x3d, 0x8d, 0x48, 0x44, 0xbb, 0x19, 0xcd, 0xcc, 0x3d, 0x17, 0xf6, 0x06, 0x3e, 0x00, 0x00, 0x00, 0x00, 0x75, 0xa2, 0xc1, 0x3d, 0xe8, 0xb2, 0xb9, 0x3d, 0x64, 0x04, 0x1a, 0xbc, 0x00, 0x00, 0x00, 0x00, 0xc8, 0x3c, 0x10, 0x3e, 0x22, 0xf6, 0xb5, 0x3d, 0x8d, 0x92, 0xff, 0x3d, 0xce, 0xc5, 0xc4, 0xbb, 0x00, 0x00, 0x00, 0x00, 0x00, 0x00, 0x00, 0x00, 0x2b, 0x15, 0x0c, 0x3d, 0x00, 0x00, 0x00, 0x00, 0x1b, 0xdd, 0x05, 0x3e, 0xcb, 0x6f, 0xfa, 0x3d, 0x29, 0x61, 0x80, 0x3c, 0x80, 0xac, 0xe9, 0x3d, 0x00, 0x00, 0x00, 0x00, 0x9c, 0x93, 0x35, 0x3d, 0x80, 0xcb, 0x80, 0xbc, 0x10, 0xd2, 0x11, 0x3e, 0xa3, 0xd8, 0x7a, 0x3d, 0x33, 0x16, 0xdd, 0x3d, 0x25, 0x99, 0xe6, 0x3d, 0x25, 0xa5, 0xc6, 0x3d, 0x00, 0x00, 0x00, 0x00, 0x00, 0x00, 0x00, 0x00, 0x00, 0x00, 0x00, 0x00, 0xb4, 0xec, 0x5b, 0x3d, 0xbe, 0x0d, 0xb2, 0x3d, 0xfb, 0x38, 0xa8, 0x3d, 0xe6, 0xef, 0xff, 0xff, 0x04, 0x00, 0x00, 0x00, 0x50, 0x00, 0x00, 0x00, 0x00, 0x00, 0x00, 0x00, 0x70, 0x13, 0x31, 0x3d, 0x65, 0x04, 0x78, 0xbc, 0x82, 0xa6, 0x00, 0xbc, 0xf7, 0x2b, 0x3f, 0xbc, 0x66, 0xef, 0x38, 0xbd, 0xb1, 0x07, 0xc5, 0x3d, 0xce, 0x29, 0x60, 0xbb, 0xee, 0x8b, 0x74, 0xbd, 0xa2, 0xff, 0xc2, 0x3d, 0x0e, 0xa0, 0x41, 0xbd, 0x95, 0x55, 0xa4, 0xbc, 0xd0, 0x1c, 0xec, 0xbb, 0x91, 0x22, 0x00, 0x3e, 0x11, 0x45, 0xd5, 0x3d, 0x00, 0x00, 0x00, 0x00, 0x00, 0x00, 0x00, 0x00, 0x89, 0x26, 0x80, 0xbc, 0x0e, 0xab, 0xfe, 0x3d, 0x00, 0x00, 0x00, 0x00, 0x42, 0xf0, 0xff, 0xff, 0x04, 0x00, 0x00, 0x00, 0x04, 0x00, 0x00, 0x00, 0xec, 0xff, 0xb8, 0x3d, 0x52, 0xf0, 0xff, 0xff, 0x04, 0x00, 0x00, 0x00, 0xa0, 0x0f, 0x00, 0x00, 0x80, 0x72, 0xc8, 0xbd, 0x66, 0x42, 0x53, 0xbe, 0x54, 0xdb, 0x4a, 0xbe, 0x52, 0xb4, 0x28, 0xbe, 0xd4, 0x4a, 0x6b, 0x3e, 0x68, 0xea, 0x4c, 0x3e, 0xf0, 0x4b, 0xe4, 0xbc, 0x40, 0x22, 0x53, 0xbe, 0x22, 0x97, 0x10, 0x3e, 0xec, 0xa2, 0xff, 0x3d, 0x40, 0x82, 0x6a, 0xbe, 0x14, 0xd9, 0xf3, 0x3d, 0x3e, 0x73, 0x15, 0x3e, 0x40, 0x6d, 0x9f, 0xbb, 0x42, 0x80, 0xf4, 0xbd, 0x4b, 0x32, 0x0c, 0xbe, 0x54, 0x03, 0x83, 0x3d, 0xac, 0x17, 0x61, 0xbe, 0x5c, 0xa0, 0x94, 0x3e, 0xf0, 0xda, 0x49, 0x3d, 0xb4, 0x1f, 0x60, 0x3e, 0xf6, 0x2f, 0x8a, 0xbe, 0x27, 0xb5, 0x01, 0xbe, 0x08, 0x58, 0x27, 0x3e, 0xe6, 0xc1, 0x02, 0x3e, 0x54, 0x3d, 0x73, 0xbe, 0x2c, 0x81, 0x5a, 0x3e, 0x5c, 0xa2, 0x82, 0x3d, 0x94, 0xff, 0x2c, 0xbe, 0x3b, 0xa9, 0x8d, 0xbe, 0x86, 0x58, 0x75, 0xbe, 0x04, 0x88, 0x6c, 0xbe, 0xb7, 0x07, 0x18, 0xbe, 0x34, 0xa7, 0x18, 0x3e, 0xfe, 0xd2, 0x35, 0x3e, 0x0a, 0x89, 0x46, 0xbe, 0x98, 0x3d, 0x8a, 0x3e, 0xc6, 0x9d, 0xf6, 0xbd, 0xd7, 0x2c, 0x89, 0xbe, 0x00, 0x66, 0xb2, 0x3d, 0x65, 0xec, 0x91, 0xbe, 0x7a, 0x53, 0x3d, 0x3e, 0x28, 0x6e, 0x2f, 0xbe, 0xbc, 0x28, 0xae, 0x3d, 0xd8, 0xc7, 0xfb, 0x3d, 0xc0, 0x07, 0x24, 0xbc, 0xc0, 0x65, 0xf5, 0xbd, 0xc1, 0x79, 0x1f, 0xbe, 0x00, 0x78, 0x1c, 0xbd, 0x98, 0x88, 0x5b, 0xbe, 0xcd, 0x14, 0x7f, 0xbe, 0x98, 0x2e, 0x8a, 0x3d, 0xed, 0xdb, 0x05, 0xbe, 0x58, 0x87, 0x2d, 0x3e, 0xa0, 0xe2, 0x11, 0xbc, 0x80, 0x1d, 0x86, 0xbe, 0xbe, 0x25, 0xa1, 0x3e, 0x2d, 0x80, 0x38, 0x3d, 0x7c, 0xda, 0x5a, 0x3c, 0xd2, 0xc9, 0x3d, 0x3c, 0x10, 0xa7, 0x56, 0xbe, 0xa9, 0x7b, 0xe0, 0xbc, 0x45, 0x7e, 0x5b, 0xbd, 0x80, 0x2b, 0x9b, 0x3e, 0x25, 0x06, 0xe7, 0xbd, 0x8e, 0x4d, 0x6a, 0xbe, 0xdb, 0x77, 0xe8, 0xbd, 0xfb, 0xb4, 0xa0, 0x3e, 0x8e, 0x6c, 0x6f, 0x3d, 0x9a, 0x85, 0x2a, 0xbe, 0xc8, 0x5f, 0x3a, 0xbe, 0xa2, 0x66, 0x2b, 0xba, 0xdc, 0x19, 0x56, 0x3e, 0xb8, 0xc7, 0x51, 0xbe, 0xbb, 0x41, 0x89, 0x3e, 0xd9, 0xcf, 0x0a, 0x3e, 0x66, 0xb2, 0x6d, 0x3e, 0xa6, 0x81, 0xa8, 0xbd, 0x48, 0xc8, 0x44, 0x3e, 0x9c, 0xf6, 0x66, 0x3e, 0x4b, 0x77, 0xa0, 0xbe, 0x20, 0xc1, 0x1c, 0xbd, 0xc5, 0xcd, 0x9f, 0x3e, 0x3d, 0x7e, 0x98, 0xbd, 0xbe, 0x66, 0x2e, 0x3d, 0x8e, 0xe5, 0x6e, 0x3e, 0x0e, 0xc2, 0x2b, 0x3e, 0x9c, 0xa6, 0xc6, 0xbd, 0x75, 0xc8, 0x93, 0x3d, 0xc8, 0xca, 0x79, 0xbc, 0x45, 0x76, 0x3d, 0x3e, 0x7d, 0x8e, 0x76, 0xbc, 0x11, 0x38, 0xe3, 0x3d, 0xc2, 0xb6, 0x42, 0xbe, 0xf8, 0x3c, 0xff, 0x3d, 0x40, 0x01, 0xeb, 0x3b, 0xa2, 0xd2, 0x8d, 0xbd, 0x87, 0x76, 0xcd, 0x3d, 0x08, 0x16, 0xd1, 0x3b, 0x72, 0xcf, 0x69, 0xbc, 0xae, 0xc2, 0x30, 0xbe, 0x30, 0x51, 0x51, 0xbd, 0xcb, 0xf8, 0x79, 0x3e, 0x04, 0x9a, 0x40, 0xbe, 0x44, 0xf2, 0x8b, 0xbd, 0x9b, 0xa6, 0x8b, 0xbe, 0x99, 0xa2, 0x5c, 0x3e, 0x7c, 0xcf, 0x41, 0x3e, 0x79, 0x27, 0x69, 0x3e, 0xe8, 0x51, 0x4c, 0x3e, 0x39, 0xc4, 0x59, 0xbe, 0xd0, 0x20, 0x7e, 0xbe, 0x75, 0x21, 0x79, 0xbc, 0x9a, 0xd3, 0x07, 0x3e, 0xab, 0xe7, 0x02, 0x3e, 0xa4, 0x15, 0x9e, 0xbe, 0x04, 0x56, 0xc0, 0xbd, 0x69, 0x83, 0x91, 0x3e, 0x6a, 0xd7, 0xca, 0xbd, 0xfe, 0x16, 0x44, 0x3e, 0x06, 0x89, 0x24, 0xbd, 0x90, 0x90, 0x8c, 0x3d, 0x69, 0xc6, 0xdd, 0xbe, 0xc0, 0x3e, 0x24, 0x3e, 0xb3, 0xc1, 0x42, 0x3e, 0x23, 0x7f, 0x6e, 0xbe, 0x44, 0x87, 0x8d, 0x3e, 0x20, 0x37, 0xa8, 0x3d, 0xa0, 0x61, 0x1b, 0x3d, 0x2c, 0x44, 0xc0, 0x3d, 0x0c, 0x22, 0x9d, 0xbe, 0x14, 0x6d, 0x8b, 0xbe, 0x94, 0x6e, 0xf9, 0xbd, 0x4b, 0x75, 0x7f, 0xbe, 0x8c, 0xa5, 0x56, 0x3d, 0xca, 0x15, 0xcc, 0x3e, 0x1e, 0x0c, 0xf6, 0xbd, 0x14, 0x62, 0xed, 0x3d, 0xc9, 0xa7, 0xd6, 0x3c, 0x8b, 0xf1, 0x63, 0x3e, 0x34, 0x37, 0xc3, 0xbe, 0x25, 0x9d, 0xa9, 0x3e, 0x5d, 0x27, 0x33, 0x3c, 0xe3, 0x4c, 0xca, 0xbd, 0x50, 0x0e, 0x62, 0x3d, 0x80, 0x45, 0xca, 0x3c, 0x00, 0x54, 0x5e, 0x3e, 0x54, 0xa5, 0x25, 0xbe, 0x24, 0xdc, 0x5b, 0x3e, 0x2c, 0xbc, 0xad, 0x3d, 0xb8, 0xc5, 0x02, 0x3e, 0x6a, 0x55, 0x19, 0x3e, 0x6c, 0x51, 0x89, 0xbd, 0x35, 0x24, 0x4f, 0xbd, 0x20, 0xcd, 0xe6, 0x3d, 0xf6, 0xcb, 0x2c, 0xbe, 0x9b, 0xf0, 0x7c, 0xbe, 0x4d, 0x68, 0x8a, 0x3e, 0x88, 0x39, 0x70, 0xbe, 0xe7, 0x47, 0x24, 0x3d, 0x61, 0xe8, 0xcb, 0x3d, 0x34, 0x12, 0x3a, 0xbe, 0xac, 0xfa, 0xe6, 0x3d, 0x9c, 0x23, 0x63, 0x3e, 0x7f, 0x42, 0x70, 0x3e, 0xb2, 0x0d, 0x04, 0xbe, 0xe7, 0x89, 0x2e, 0xbe, 0x74, 0x6c, 0xd0, 0xbd, 0x07, 0xce, 0x07, 0x3e, 0xc0, 0x88, 0x0c, 0x3c, 0x05, 0xc5, 0x09, 0x3d, 0xb5, 0xed, 0xf6, 0xbd, 0x82, 0x85, 0x4c, 0xbd, 0x23, 0x25, 0x8f, 0xbe, 0x63, 0xd1, 0x11, 0x3c, 0x2c, 0x3e, 0x91, 0x3b, 0x04, 0xd2, 0x04, 0x3e, 0x02, 0x79, 0x8d, 0xbd, 0x32, 0x6b, 0x2a, 0x3e, 0xd2, 0xa1, 0x82, 0x3e, 0xb8, 0x94, 0x44, 0x3e, 0xe0, 0xca, 0xc4, 0x3d, 0xbf, 0x5c, 0xdb, 0xbd, 0x1b, 0x41, 0x73, 0x3e, 0x7f, 0xe5, 0x1d, 0x3e, 0xe0, 0xc3, 0x6f, 0xbc, 0x00, 0xf7, 0x7b, 0xbe, 0x00, 0xac, 0x7b, 0xbb, 0x58, 0x08, 0x89, 0x3d, 0x12, 0x09, 0x8e, 0xbe, 0xef, 0xd3, 0x83, 0xbb, 0xa8, 0xb3, 0x66, 0xbc, 0x8f, 0x2b, 0x7e, 0xbe, 0xa6, 0x51, 0xee, 0xbd, 0x16, 0x0a, 0x6a, 0xbe, 0xd8, 0x88, 0x72, 0x3d, 0xe8, 0x26, 0x7e, 0x3e, 0xab, 0x12, 0x68, 0x3e, 0x60, 0xc6, 0x39, 0xbd, 0xd7, 0xe8, 0x62, 0xbe, 0x90, 0xea, 0xcd, 0x3c, 0xee, 0xaa, 0xac, 0xbd, 0x95, 0x82, 0x88, 0x3d, 0x02, 0x14, 0x84, 0x3d, 0x82, 0xde, 0x33, 0x3e, 0x86, 0x3b, 0x94, 0x3e, 0x6a, 0xd9, 0x44, 0xbe, 0xe6, 0xe9, 0x0f, 0x3e, 0xf1, 0xf3, 0xf9, 0x3d, 0xf0, 0x97, 0x71, 0x3e, 0xba, 0xa0, 0x10, 0x3e, 0x85, 0x62, 0x4b, 0xbe, 0xf8, 0x23, 0x51, 0xbe, 0x3a, 0xdb, 0xb0, 0xbd, 0xdb, 0x53, 0x26, 0xbe, 0x20, 0x16, 0x8b, 0xbe, 0x1d, 0x59, 0x4f, 0xbd, 0x45, 0x29, 0xc6, 0xbd, 0x79, 0x87, 0x2c, 0x3e, 0x00, 0x50, 0x5c, 0x3e, 0x60, 0x98, 0x4f, 0x3e, 0x16, 0x5e, 0x80, 0xbd, 0x98, 0x8b, 0xef, 0x3d, 0x34, 0x8d, 0x37, 0xbe, 0xcb, 0x38, 0xb0, 0xbd, 0x0f, 0x7b, 0x70, 0xbe, 0x8c, 0x2a, 0xef, 0x3d, 0x09, 0x4c, 0x39, 0x3e, 0xe4, 0xd3, 0x87, 0x3e, 0xd8, 0xa5, 0x5b, 0x3d, 0xba, 0x5b, 0x9f, 0xbe, 0xf8, 0x77, 0xce, 0xbd, 0x4c, 0xec, 0x57, 0x3e, 0x2b, 0x85, 0xd1, 0x3d, 0x3a, 0x5e, 0x62, 0x3e, 0xb8, 0x18, 0xcb, 0x3d, 0x80, 0x52, 0x71, 0x3e, 0xdd, 0x58, 0x3f, 0xbe, 0x83, 0x60, 0x7c, 0x3e, 0xa3, 0x4e, 0x50, 0xbe, 0x92, 0x72, 0x1f, 0x3e, 0x22, 0x14, 0xb6, 0x3e, 0xc0, 0x4c, 0x80, 0x3e, 0x1b, 0xdb, 0x00, 0x3d, 0x44, 0xba, 0x5d, 0x3e, 0xaf, 0xe5, 0x5e, 0xbe, 0xa8, 0x1c, 0xd2, 0x3d, 0xea, 0xd5, 0xc0, 0xbd, 0xe4, 0x87, 0x85, 0xbe, 0x32, 0x3f, 0x08, 0x3e, 0x20, 0x67, 0x1b, 0x3d, 0x32, 0x06, 0xae, 0xbd, 0x93, 0xcf, 0x98, 0xbd, 0x8a, 0xc3, 0x3a, 0x3e, 0x34, 0x4b, 0x5c, 0x3e, 0xa9, 0xdd, 0x61, 0xbe, 0x95, 0xea, 0x82, 0x3e, 0x00, 0x14, 0xad, 0xbc, 0xc3, 0x3a, 0x56, 0xbe, 0x3b, 0x2a, 0x85, 0xbb, 0x5a, 0x77, 0xc8, 0xbc, 0x83, 0xbf, 0xee, 0x3d, 0xe8, 0xc8, 0xa8, 0xbc, 0xf3, 0xaa, 0x25, 0xbe, 0x34, 0x11, 0x8d, 0xbc, 0xe2, 0xe2, 0xec, 0x3d, 0x35, 0x56, 0xa4, 0x3d, 0x63, 0x82, 0x17, 0xbd, 0x88, 0xd8, 0x8c, 0xbd, 0xd6, 0x8c, 0x7f, 0xbe, 0x32, 0xf6, 0xc3, 0xbd, 0xcf, 0xee, 0x7a, 0xbe, 0x38, 0x0c, 0xef, 0xbd, 0x3c, 0xf9, 0x49, 0xbe, 0x03, 0x44, 0xda, 0xbd, 0x30, 0xa7, 0x26, 0x3b, 0x81, 0xaf, 0x38, 0x3d, 0x4e, 0x84, 0xf9, 0xbc, 0xd8, 0x53, 0x60, 0x3e, 0xf8, 0x48, 0x37, 0x3e, 0x71, 0xe1, 0x27, 0xbe, 0x1c, 0x92, 0x8d, 0x3e, 0x41, 0xf5, 0x9d, 0x3e, 0x48, 0x98, 0xb8, 0xbe, 0x88, 0x30, 0x76, 0x3e, 0x2e, 0xdb, 0x21, 0x3d, 0x98, 0x96, 0x93, 0xbe, 0x93, 0x19, 0xdb, 0x3d, 0xbf, 0x32, 0x7b, 0x3d, 0x3e, 0x82, 0x48, 0x3e, 0x87, 0x5c, 0x81, 0xbe, 0xe7, 0xd7, 0xa9, 0x3e, 0x46, 0x33, 0x5e, 0xbd, 0x3b, 0x3d, 0x46, 0x3d, 0x5c, 0xa5, 0x77, 0x3e, 0x80, 0x14, 0xc2, 0x3d, 0xf8, 0xe9, 0xb2, 0xbd, 0x02, 0x5c, 0x98, 0x3c, 0x9a, 0xa7, 0xde, 0x3d, 0x51, 0xe5, 0x0b, 0xbe, 0x10, 0xe1, 0xf9, 0x3c, 0x6c, 0xb4, 0xf3, 0x3d, 0x52, 0x8d, 0x9b, 0xbe, 0x60, 0xf8, 0xb0, 0x3e, 0xa0, 0x04, 0x4d, 0xbe, 0x68, 0x85, 0x5a, 0xbd, 0x24, 0x1d, 0x50, 0x3e, 0x7e, 0x8d, 0xae, 0x3d, 0xe6, 0x75, 0x21, 0x3d, 0xac, 0xf5, 0xa0, 0x3e, 0x1d, 0x03, 0xd0, 0x3d, 0x8b, 0xb5, 0x84, 0xbe, 0xa4, 0x2a, 0xb8, 0x3e, 0x66, 0xa6, 0xbd, 0xbe, 0x88, 0x9e, 0xbb, 0x3e, 0x26, 0xe1, 0x6a, 0x3e, 0x67, 0x08, 0x02, 0xbe, 0xe9, 0x73, 0xff, 0x3d, 0xe2, 0x31, 0x95, 0xbc, 0x90, 0x8d, 0x03, 0xbd, 0x05, 0x94, 0x0f, 0x3d, 0xf5, 0x66, 0x8f, 0x3e, 0x21, 0x85, 0x82, 0x3d, 0xdc, 0xcf, 0x7a, 0x3e, 0x91, 0x2a, 0x8a, 0xbe, 0xb5, 0xd2, 0xc0, 0xbd, 0xc9, 0x02, 0x82, 0xbe, 0x1a, 0x7f, 0x5b, 0x3d, 0x23, 0x8f, 0x86, 0xbe, 0xa6, 0xff, 0x38, 0xbe, 0xd9, 0xde, 0x3e, 0xbe, 0xf8, 0xc0, 0xbb, 0xbd, 0xcd, 0x60, 0xbc, 0xbe, 0xb5, 0x96, 0xee, 0x3b, 0xd7, 0xf6, 0xe0, 0x3c, 0xb9, 0xbc, 0x91, 0xbe, 0xe3, 0xa9, 0x3a, 0xbe, 0xa4, 0xe7, 0x54, 0x3c, 0x20, 0xd5, 0x1c, 0xbe, 0xab, 0x49, 0xae, 0x3e, 0x8e, 0xf6, 0xf6, 0xbd, 0xee, 0x85, 0x68, 0xbe, 0xc3, 0x08, 0xcf, 0x3e, 0xd6, 0x75, 0xb2, 0x3e, 0xe4, 0x83, 0xab, 0xbd, 0xb0, 0xc2, 0x80, 0xbd, 0x00, 0xb0, 0x8c, 0x3b, 0x63, 0x8b, 0x5e, 0xbd, 0xf7, 0x82, 0xc1, 0x3e, 0x8b, 0x24, 0x8a, 0x3e, 0xc0, 0xc5, 0xa4, 0xbb, 0x9c, 0x46, 0xc5, 0xbd, 0x0f, 0x2f, 0x9c, 0x3e, 0x3d, 0xdf, 0x9c, 0x3e, 0xad, 0xca, 0x58, 0xbe, 0x40, 0x00, 0xb5, 0xbc, 0x24, 0xae, 0xa8, 0x3e, 0xa8, 0xff, 0x28, 0xbe, 0x3a, 0x23, 0x8d, 0xbe, 0xd6, 0xac, 0xe5, 0xbd, 0xf0, 0xf8, 0x59, 0x3e, 0x6e, 0x2b, 0xe1, 0x3d, 0x4f, 0x1a, 0x4a, 0xbd, 0xb2, 0x14, 0x61, 0x3e, 0xc2, 0x8c, 0x64, 0xbe, 0x4b, 0x25, 0x8f, 0x3a, 0x94, 0x3f, 0xc8, 0x3d, 0x42, 0xfb, 0xf0, 0xbd, 0x72, 0x3a, 0xaa, 0x3c, 0x40, 0xa3, 0xd0, 0x3b, 0xff, 0x9a, 0x94, 0xbd, 0x6c, 0xd7, 0xd2, 0x3b, 0xb5, 0x5d, 0x9e, 0xbe, 0x2c, 0x6d, 0x34, 0xbe, 0x5f, 0xf3, 0xca, 0x3e, 0xe7, 0x9d, 0xc0, 0x3d, 0x9a, 0x03, 0x80, 0x3e, 0x54, 0x78, 0x4b, 0x3e, 0xc7, 0x1b, 0x8e, 0xbe, 0x14, 0x0b, 0x64, 0xbe, 0xb7, 0x16, 0x8c, 0xbe, 0x5c, 0xa7, 0x01, 0x3e, 0xfb, 0xd9, 0x10, 0xbe, 0x0c, 0xd7, 0x09, 0xbe, 0xe3, 0xd1, 0x26, 0xbe, 0xed, 0x8e, 0x8c, 0x3e, 0x00, 0xb2, 0x7d, 0xbc, 0x67, 0x18, 0x81, 0xbc, 0xe0, 0x6d, 0x8c, 0x3e, 0xd9, 0x24, 0x76, 0xbe, 0x19, 0xa6, 0x1e, 0xbe, 0xeb, 0xe5, 0x3a, 0x3e, 0x44, 0x74, 0x70, 0x3e, 0x57, 0x19, 0x94, 0x3e, 0xf6, 0xf5, 0x17, 0x3e, 0xc8, 0x9a, 0x0f, 0x3e, 0x14, 0x89, 0x52, 0xbe, 0x0d, 0x8d, 0xf9, 0x3d, 0xfc, 0xc5, 0x41, 0xbd, 0x1d, 0xb8, 0x9d, 0xbd, 0x32, 0x83, 0x2f, 0x3e, 0x0a, 0xd5, 0x5b, 0xbe, 0xcd, 0xc2, 0x59, 0x3b, 0xf4, 0x9f, 0x5d, 0xbe, 0x28, 0xe1, 0x44, 0x3d, 0x58, 0x92, 0x22, 0xbd, 0x85, 0x40, 0xf5, 0x3d, 0x5c, 0x3c, 0x78, 0x3e, 0x7f, 0x17, 0xa3, 0xbe, 0x13, 0xa6, 0xfc, 0x3d, 0xc0, 0xfc, 0x2b, 0x3e, 0xbc, 0xd2, 0xdc, 0x3d, 0x12, 0x08, 0x2e, 0xbc, 0x8c, 0xc3, 0x86, 0x3e, 0xf2, 0x32, 0x8f, 0xbe, 0x69, 0xc0, 0x62, 0x3e, 0x0e, 0x0c, 0x88, 0xbe, 0xf4, 0x36, 0x87, 0xbe, 0x1c, 0x0f, 0x1d, 0x3e, 0x5e, 0xff, 0x2f, 0x3e, 0xc3, 0x9d, 0x25, 0x3e, 0x10, 0xa6, 0x61, 0xbe, 0x40, 0x5e, 0x8c, 0xbe, 0x72, 0x48, 0x19, 0x3e, 0x1b, 0x5b, 0x86, 0xbe, 0x95, 0xec, 0x5f, 0xbe, 0x1b, 0xc8, 0x49, 0xbe, 0xa9, 0xc4, 0x8e, 0xbe, 0xa2, 0x7d, 0x11, 0x3e, 0xf9, 0xf2, 0x04, 0xbe, 0x89, 0x34, 0x18, 0xbe, 0x4c, 0xe8, 0x92, 0x3e, 0x61, 0x66, 0x59, 0x3e, 0xe7, 0x71, 0xa7, 0x3d, 0xd3, 0x53, 0x61, 0xbd, 0x7f, 0x4e, 0x97, 0xbd, 0xb0, 0x7c, 0xa4, 0xbc, 0xe8, 0xb7, 0x8e, 0xbe, 0x81, 0x0f, 0x2a, 0xbe, 0xf5, 0x24, 0x2f, 0x3d, 0x59, 0x32, 0x39, 0xbc, 0xbf, 0x09, 0x62, 0x3e, 0x04, 0x86, 0xa3, 0xbd, 0x85, 0x48, 0x0c, 0xbe, 0xe4, 0xee, 0x40, 0xbd, 0x0c, 0xb6, 0xc9, 0xbd, 0x76, 0xbc, 0x02, 0x3e, 0x65, 0xa5, 0x63, 0x3e, 0x66, 0x89, 0x27, 0x3e, 0xad, 0xef, 0xb8, 0x3c, 0x9c, 0x9e, 0x81, 0xbe, 0xee, 0x44, 0x33, 0x3e, 0x87, 0x40, 0x60, 0x3c, 0x63, 0x58, 0xd0, 0x3e, 0xc6, 0xe2, 0x2e, 0x3e, 0xf0, 0xea, 0x8e, 0x3e, 0xb4, 0x8b, 0x75, 0x3e, 0x32, 0x59, 0x44, 0xba, 0x38, 0x5b, 0x73, 0x3d, 0xcf, 0xad, 0x08, 0xbc, 0xd9, 0x39, 0x01, 0x3e, 0x6d, 0x8f, 0x05, 0x3d, 0x2f, 0xf2, 0x2e, 0x3c, 0x79, 0xc8, 0xdd, 0x3c, 0x4f, 0xc6, 0x04, 0x3d, 0x90, 0xbe, 0x05, 0x3e, 0x47, 0x15, 0xaf, 0x3d, 0x76, 0x9f, 0xba, 0xbe, 0xf5, 0x30, 0x86, 0x3e, 0x6c, 0xab, 0x44, 0x3e, 0x21, 0xf3, 0x08, 0x3e, 0xe3, 0xa2, 0x0b, 0x3d, 0xc0, 0x96, 0xd1, 0x3d, 0x12, 0xc8, 0xbb, 0xbd, 0x43, 0xf7, 0x2a, 0xbe, 0xb9, 0x7e, 0x34, 0x3e, 0x52, 0xd7, 0x9f, 0xbe, 0x4b, 0x35, 0xaa, 0x3d, 0x50, 0xf9, 0xfc, 0xbd, 0xc4, 0x62, 0x8a, 0x3e, 0x29, 0xf5, 0x79, 0xbe, 0x23, 0xfa, 0x80, 0xbe, 0x6d, 0x46, 0x73, 0xbc, 0x91, 0x99, 0x7d, 0x3e, 0xe2, 0x97, 0x66, 0x3d, 0x55, 0xcb, 0xa4, 0xbd, 0x38, 0x93, 0x14, 0xbe, 0x65, 0x65, 0x94, 0x3e, 0x65, 0x87, 0xd2, 0x3d, 0xc6, 0xba, 0x4e, 0x3e, 0x14, 0x99, 0x51, 0x3e, 0xea, 0x80, 0x68, 0x3e, 0xc9, 0x22, 0x9c, 0x3e, 0x6b, 0xda, 0x64, 0x3c, 0x98, 0xc2, 0x05, 0x3d, 0x3c, 0x2a, 0x73, 0x3e, 0xae, 0xa9, 0xad, 0xbd, 0xe5, 0x70, 0xa4, 0x3e, 0x9f, 0x89, 0x24, 0x3e, 0xb5, 0x2a, 0x04, 0x3e, 0x2d, 0xaa, 0x01, 0xbe, 0x94, 0xfb, 0x51, 0xbe, 0xeb, 0x66, 0xf0, 0x3d, 0xb1, 0xaa, 0x45, 0x3e, 0x5b, 0xdf, 0x34, 0xbe, 0xc8, 0x16, 0x53, 0x3e, 0xcb, 0xc9, 0x91, 0x3e, 0x59, 0xe2, 0xda, 0xbd, 0x53, 0xe0, 0x5c, 0x3e, 0x53, 0xbe, 0xd3, 0x3c, 0xae, 0x5e, 0x39, 0x3e, 0x1f, 0xe5, 0x9f, 0xbe, 0x57, 0xc5, 0x92, 0xbe, 0xcf, 0x9e, 0x30, 0x3e, 0xb4, 0xa3, 0x59, 0x3e, 0xf3, 0xed, 0x77, 0x3e, 0x2f, 0xda, 0x99, 0xbd, 0xac, 0xd3, 0x88, 0x3e, 0x53, 0x90, 0x5f, 0xbe, 0x7c, 0xd8, 0x95, 0x3d, 0x67, 0xc8, 0xd5, 0xbc, 0x06, 0x17, 0xb2, 0xbe, 0xca, 0xcb, 0xd1, 0x3d, 0x4c, 0xff, 0x60, 0x3e, 0x22, 0x46, 0x32, 0x3e, 0x67, 0x18, 0x2a, 0xbe, 0xc1, 0x2c, 0x7b, 0x3e, 0xe3, 0x66, 0x3b, 0xbd, 0xec, 0x24, 0x39, 0xbe, 0x88, 0x71, 0x75, 0x3e, 0xe6, 0x72, 0x39, 0x3e, 0x98, 0xd3, 0x54, 0x3e, 0x55, 0x78, 0x86, 0x3e, 0x66, 0x00, 0x0c, 0x3e, 0x61, 0x54, 0x14, 0xbe, 0x6f, 0x81, 0x73, 0x3e, 0xb5, 0xff, 0x8a, 0xbe, 0xb1, 0x60, 0x65, 0x3d, 0xbe, 0x1f, 0x08, 0x3e, 0xa3, 0xa9, 0x4f, 0xbd, 0x8f, 0xd0, 0xfb, 0xbc, 0x1a, 0x2a, 0x95, 0xbd, 0x7b, 0x0f, 0x2f, 0xbe, 0x65, 0xd1, 0x37, 0x3d, 0x28, 0xcf, 0x80, 0xbe, 0xda, 0x54, 0x0b, 0x3e, 0x70, 0xb2, 0x1d, 0x3d, 0x52, 0x4f, 0x01, 0x3d, 0xcb, 0x37, 0x5d, 0xbe, 0x3b, 0xad, 0x26, 0x3e, 0x88, 0x11, 0x2c, 0xbd, 0xea, 0xcb, 0x45, 0xbe, 0x6c, 0x80, 0xf5, 0x3d, 0xaa, 0xa0, 0x93, 0xbd, 0x0a, 0xf7, 0xbd, 0xbd, 0xcc, 0x9c, 0x43, 0xbe, 0x00, 0x7f, 0x27, 0xbe, 0x5e, 0x34, 0xc3, 0xbd, 0x49, 0xd4, 0xe2, 0xbd, 0xe9, 0x48, 0x66, 0xbe, 0xe0, 0xa0, 0x10, 0x3d, 0xa0, 0x32, 0xa2, 0xbd, 0xf7, 0xe8, 0x84, 0x3e, 0xe8, 0xe0, 0xd4, 0xbd, 0x73, 0xd9, 0x93, 0xbe, 0x85, 0x31, 0xfe, 0xbd, 0xb3, 0x76, 0x8e, 0xbe, 0x96, 0xe5, 0x98, 0xbe, 0x3f, 0xca, 0x2d, 0xbc, 0x2c, 0xdd, 0x95, 0x3e, 0x78, 0xf2, 0xe3, 0xbd, 0x27, 0x1c, 0x16, 0xbe, 0x12, 0x1e, 0x78, 0x3d, 0x00, 0xbf, 0xc5, 0x3c, 0xe5, 0xc1, 0x67, 0x3e, 0xe6, 0x49, 0x1e, 0x3e, 0x8e, 0x5f, 0x6d, 0xbd, 0x4e, 0x2d, 0x1f, 0x3e, 0x62, 0x35, 0xd0, 0xbd, 0x90, 0x5a, 0xe4, 0xbc, 0xd1, 0xe5, 0xac, 0x3d, 0x3c, 0xc4, 0x4e, 0xbd, 0xb1, 0xf8, 0x33, 0x3e, 0x95, 0xf9, 0xf8, 0xbd, 0x24, 0x52, 0x99, 0xbe, 0x74, 0x18, 0x95, 0x3d, 0x18, 0x8b, 0x63, 0x3e, 0x8a, 0x4c, 0x2f, 0x3e, 0x63, 0xa9, 0xb3, 0xbd, 0xa6, 0x0d, 0x44, 0xbe, 0xf1, 0x47, 0x5b, 0x3e, 0x0b, 0x75, 0x87, 0x3e, 0xfa, 0x57, 0x24, 0xbc, 0xa8, 0xc0, 0xe9, 0xbd, 0xd0, 0xcd, 0xec, 0xbc, 0xa0, 0x26, 0x35, 0x3d, 0x5a, 0x7e, 0x80, 0x3e, 0xa5, 0x65, 0xa7, 0x3d, 0xe0, 0xaa, 0x26, 0xbc, 0x2f, 0x7b, 0x8d, 0xbe, 0x4e, 0xd7, 0x2e, 0x3e, 0x54, 0x7a, 0x49, 0xbd, 0xb8, 0x78, 0x3c, 0xbc, 0xe3, 0x41, 0xb8, 0xbc, 0x78, 0x9c, 0xd8, 0x3d, 0xd0, 0x7e, 0xa6, 0xbd, 0xab, 0xa8, 0xa8, 0xbd, 0x00, 0x6f, 0x31, 0xbc, 0xd8, 0x6a, 0x38, 0xbe, 0xa6, 0xd1, 0x78, 0x3e, 0xd9, 0xa8, 0x7e, 0xbe, 0x73, 0x90, 0x14, 0xbe, 0xa3, 0x17, 0xb4, 0x3c, 0x11, 0xfa, 0x90, 0x3d, 0x23, 0xe8, 0xa7, 0x3d, 0x14, 0xce, 0x50, 0xbe, 0x5c, 0x63, 0x8c, 0xbe, 0x3a, 0xa5, 0x43, 0xbe, 0x8c, 0x3a, 0x0d, 0x3d, 0xd2, 0xd6, 0x2f, 0x3e, 0xb8, 0xc4, 0x8d, 0xbe, 0x7f, 0x49, 0x53, 0xbe, 0xa7, 0x63, 0xc7, 0x3c, 0x70, 0xdb, 0x36, 0x3e, 0xbc, 0xc3, 0xb2, 0x3d, 0xee, 0xb3, 0x7d, 0x3e, 0x10, 0xec, 0x33, 0x3e, 0x98, 0x59, 0x22, 0x3e, 0x46, 0xa2, 0x74, 0xbe, 0x78, 0x91, 0x53, 0x3e, 0x76, 0x90, 0x87, 0xbe, 0xb2, 0x6e, 0x2c, 0xbe, 0xff, 0x33, 0xcd, 0xbb, 0x6d, 0xa2, 0x85, 0x3e, 0xdc, 0x39, 0x2a, 0xbe, 0xea, 0x61, 0x18, 0x3e, 0x18, 0x87, 0x32, 0x3d, 0x4e, 0x95, 0xbc, 0xbd, 0xc8, 0xc2, 0x07, 0xbe, 0xc6, 0x40, 0x89, 0xbe, 0x01, 0x38, 0x71, 0x3e, 0x21, 0xf0, 0xc1, 0xbc, 0xf4, 0xee, 0x9d, 0xbd, 0x20, 0x9e, 0x40, 0x3e, 0xfa, 0x79, 0x91, 0x3e, 0x50, 0x5f, 0x34, 0x3d, 0x02, 0x46, 0x2b, 0xbe, 0xaa, 0x4a, 0x8b, 0x3e, 0x54, 0x25, 0x8a, 0xbe, 0x12, 0x96, 0xef, 0xbd, 0xa0, 0x56, 0x1c, 0xbd, 0xec, 0xf0, 0x7c, 0x3e, 0xca, 0x59, 0x9b, 0x3e, 0x2a, 0x90, 0xe4, 0xbd, 0x78, 0x1e, 0xb1, 0xbd, 0x24, 0x55, 0xc9, 0x3d, 0x13, 0x92, 0x2b, 0xbe, 0x26, 0x45, 0x4d, 0x3e, 0x34, 0x3c, 0xf0, 0x3c, 0x5f, 0xad, 0x7f, 0xbd, 0x54, 0xf0, 0x6a, 0x3e, 0x06, 0xe2, 0x96, 0xbd, 0x2d, 0x27, 0x52, 0x3c, 0xf8, 0x2e, 0xb2, 0xbd, 0x50, 0x2c, 0xb1, 0x3d, 0x01, 0xeb, 0x2e, 0x3e, 0xa8, 0xd8, 0xe9, 0x3d, 0xf6, 0xe8, 0x0d, 0xbe, 0x99, 0xed, 0x56, 0x3e, 0xdc, 0x28, 0xf1, 0x3d, 0x7d, 0xab, 0xfc, 0xbd, 0xb1, 0x02, 0xe0, 0x3e, 0xbc, 0xae, 0xf0, 0x3d, 0xb4, 0x6b, 0xb6, 0x3d, 0x74, 0x19, 0x35, 0xbe, 0x7e, 0x1f, 0x84, 0x3e, 0xad, 0xa6, 0xf0, 0xbd, 0x06, 0x68, 0xf5, 0xbd, 0xc0, 0x54, 0xe4, 0x3d, 0xb0, 0x69, 0x91, 0x3e, 0xd4, 0x44, 0xd6, 0x3e, 0x7a, 0x87, 0xa3, 0xbd, 0xd9, 0xad, 0x19, 0x3e, 0x93, 0x22, 0x9a, 0xbd, 0x90, 0xda, 0xb5, 0x3e, 0xfc, 0x60, 0xfa, 0x3d, 0x88, 0x02, 0x5a, 0xbd, 0xe7, 0x53, 0xd2, 0x3e, 0x07, 0x40, 0x24, 0xbe, 0x37, 0x16, 0xa4, 0x3e, 0x14, 0x1d, 0x0c, 0x3e, 0xcc, 0x99, 0x80, 0x3d, 0x94, 0x3c, 0x9b, 0x3e, 0xa2, 0x68, 0xe3, 0x3e, 0x7c, 0x7f, 0x57, 0x3e, 0x9c, 0x4b, 0x70, 0x3e, 0xc4, 0xb6, 0x72, 0x3e, 0xbd, 0x94, 0x9c, 0xbd, 0xfb, 0x3e, 0xf9, 0xbd, 0x5d, 0xc6, 0xce, 0xbd, 0xd6, 0x91, 0x1b, 0x3e, 0x2c, 0x61, 0xce, 0x3d, 0x96, 0xc1, 0xfb, 0xbd, 0xd0, 0xb8, 0xb2, 0x3d, 0x30, 0x85, 0xef, 0x3c, 0x58, 0x1c, 0x4b, 0xbe, 0x8a, 0xb3, 0x4c, 0xbe, 0x52, 0xbb, 0x09, 0x3e, 0x83, 0xcf, 0x80, 0x3e, 0x0c, 0xd2, 0xb9, 0x3e, 0x81, 0xd5, 0xa7, 0xbc, 0x86, 0x7c, 0x10, 0x3e, 0x73, 0x28, 0x9a, 0xbd, 0x5f, 0xa4, 0xe4, 0xbd, 0x1e, 0x87, 0x88, 0x3e, 0x0a, 0xd5, 0x19, 0x3e, 0x16, 0x9c, 0xc8, 0xbd, 0x27, 0xbd, 0x9b, 0xbe, 0xc1, 0xd6, 0xc1, 0x3e, 0x10, 0x46, 0xde, 0x3c, 0x73, 0x5b, 0xb0, 0x3e, 0x2e, 0x74, 0xc8, 0x3e, 0x5f, 0xab, 0x15, 0xbd, 0x00, 0xc4, 0xa3, 0x3b, 0x19, 0xc1, 0xcc, 0xbe, 0x19, 0x72, 0xb7, 0x3e, 0x0c, 0x05, 0xb9, 0xbd, 0xf7, 0x7f, 0xfa, 0xbd, 0xc0, 0xf2, 0x95, 0xbb, 0x50, 0xcb, 0x3b, 0x3e, 0xb4, 0xc3, 0xb0, 0xbd, 0xc6, 0x5f, 0xfa, 0xbd, 0xf9, 0x49, 0x17, 0x3e, 0x31, 0xc6, 0x45, 0x3e, 0x80, 0x9b, 0x0b, 0x3e, 0x90, 0x0e, 0xbc, 0xbe, 0x38, 0x36, 0x7f, 0x3e, 0x65, 0x30, 0xba, 0xbd, 0x30, 0x80, 0x0a, 0x3e, 0x21, 0x51, 0x15, 0xbd, 0x2a, 0xae, 0x8f, 0x3e, 0x91, 0x69, 0x16, 0xbe, 0x47, 0x27, 0xc9, 0xbd, 0xbe, 0x95, 0x5e, 0x3e, 0x54, 0x55, 0xc8, 0xbd, 0xf2, 0xdc, 0xad, 0xbd, 0xc0, 0x4e, 0xfe, 0xbb, 0xaf, 0x7a, 0x8e, 0x3b, 0x2d, 0x52, 0x10, 0x3e, 0xa1, 0xdd, 0x79, 0xbc, 0xa4, 0x01, 0x04, 0x3e, 0x86, 0xb2, 0x2a, 0xbe, 0x1c, 0xb7, 0xbc, 0x3d, 0x3a, 0x98, 0x5e, 0xbe, 0xf0, 0x6e, 0xb0, 0xbc, 0x7b, 0x8b, 0x73, 0xbe, 0xa6, 0x35, 0xd3, 0xbd, 0xf6, 0x4a, 0x08, 0xbe, 0x00, 0x14, 0x1d, 0xbe, 0xbe, 0xd5, 0x8d, 0xbd, 0xc2, 0x80, 0x93, 0x3e, 0x74, 0x56, 0x7f, 0xbe, 0x04, 0x3b, 0x8c, 0x3d, 0x05, 0x17, 0x86, 0xbe, 0xaa, 0x58, 0x8c, 0xbe, 0x8e, 0x03, 0x85, 0x3e, 0x90, 0x9e, 0x6f, 0xbd, 0x40, 0xb2, 0xa5, 0xbc, 0x5a, 0xd4, 0xf8, 0xbd, 0xd1, 0xca, 0x90, 0xbe, 0xf1, 0x8b, 0x47, 0xbe, 0xa0, 0x4d, 0x7e, 0xbe, 0xd1, 0x53, 0x93, 0xbe, 0x2c, 0xa1, 0x84, 0xbe, 0xf6, 0x85, 0xa5, 0xbd, 0x0c, 0x8f, 0xe7, 0x3d, 0x93, 0xef, 0x47, 0xbe, 0x74, 0xf4, 0x80, 0xbd, 0x5c, 0x4b, 0x46, 0xbe, 0x30, 0x01, 0xe1, 0x3c, 0xb8, 0xaf, 0xd0, 0x3d, 0x7e, 0x27, 0x48, 0x3e, 0x10, 0x7e, 0x76, 0x3e, 0xd8, 0x5e, 0x23, 0x3d, 0x52, 0x6b, 0xfc, 0xbd, 0x50, 0xb1, 0x47, 0x3d, 0x2a, 0xce, 0x11, 0x3e, 0x84, 0x43, 0x83, 0x3e, 0x0c, 0x51, 0xbc, 0xbd, 0xe0, 0x91, 0x8c, 0x3e, 0xe0, 0x02, 0x7e, 0x3c, 0x86, 0x8b, 0x8a, 0x3e, 0x00, 0x0b, 0x04, 0x3d, 0xe8, 0xe9, 0x78, 0x3d, 0x50, 0x4a, 0x8d, 0xbd, 0x50, 0xab, 0x6f, 0x3d, 0xc6, 0x52, 0x80, 0xbd, 0xb3, 0xf5, 0x83, 0xbe, 0x1e, 0x83, 0x28, 0x3e, 0x7a, 0xa1, 0x61, 0xbe, 0xfe, 0x31, 0xbf, 0xbd, 0x16, 0xef, 0x21, 0x3e, 0x78, 0x63, 0xfa, 0x3d, 0x80, 0xfd, 0x51, 0xbe, 0x48, 0x6d, 0x0e, 0xbd, 0xd0, 0x59, 0x1b, 0xbd, 0xea, 0xf0, 0x8d, 0xbe, 0x18, 0x1c, 0x02, 0xbd, 0x98, 0x98, 0x4a, 0xbe, 0xba, 0xe6, 0xa4, 0xbd, 0x07, 0x0f, 0x7e, 0xbe, 0x42, 0xca, 0x3a, 0x3e, 0x00, 0x31, 0xb1, 0x3a, 0xf4, 0x65, 0x3d, 0x3e, 0xf7, 0x82, 0x54, 0xbe, 0x9e, 0x6a, 0x8a, 0xbd, 0x00, 0x21, 0x7b, 0xbb, 0xf8, 0xa9, 0x75, 0x3e, 0x18, 0x22, 0x55, 0x3e, 0xa6, 0x71, 0x23, 0xbe, 0xa8, 0xed, 0x89, 0xbe, 0xc4, 0xeb, 0x83, 0xbe, 0xe6, 0x4a, 0xd8, 0xbd, 0x10, 0x11, 0x91, 0xbe, 0xb4, 0x4d, 0xd5, 0x3d, 0xb0, 0xb7, 0x79, 0x3e, 0xe8, 0xd4, 0x2b, 0x3d, 0x22, 0xd7, 0x17, 0x3e, 0xb8, 0x79, 0x51, 0xbe, 0xc4, 0x8b, 0x46, 0xbe, 0x40, 0x59, 0x8f, 0x3e, 0x18, 0xcf, 0xc3, 0xbd, 0x08, 0x25, 0x2d, 0xbd, 0x90, 0x9d, 0xe3, 0x3c, 0x7e, 0xb1, 0x91, 0x3e, 0x1e, 0xdc, 0x91, 0xbe, 0xc2, 0x4c, 0xd9, 0xbd, 0xdc, 0x7f, 0x1e, 0xbe, 0x60, 0x7a, 0xc6, 0xbc, 0x18, 0x2d, 0x0e, 0xbd, 0x66, 0xa7, 0x52, 0xbe, 0xfa, 0x92, 0x40, 0x3e, 0x32, 0x1d, 0x12, 0xbe, 0xfd, 0xa4, 0x83, 0xbe, 0xae, 0x3d, 0x2f, 0xbe, 0xb0, 0x4d, 0xf0, 0x3d, 0x8b, 0xef, 0x94, 0xbe, 0x86, 0x95, 0x02, 0xbe, 0xae, 0x7d, 0x60, 0xbe, 0x88, 0x49, 0x28, 0xbe, 0xc8, 0x5a, 0x34, 0x3e, 0x80, 0x62, 0xfb, 0x3c, 0xb2, 0x8f, 0xef, 0xbc, 0x62, 0xc2, 0x7d, 0x3e, 0xd2, 0xa0, 0xd5, 0xbd, 0x58, 0x8b, 0x68, 0x3e, 0xf0, 0x43, 0x22, 0xbe, 0x99, 0x49, 0x6d, 0x3c, 0xd9, 0x9a, 0x68, 0xbe, 0x73, 0xe2, 0x5b, 0x3d, 0xe5, 0x5b, 0x82, 0xbe, 0xb1, 0x44, 0xeb, 0x3d, 0xfc, 0x55, 0x5f, 0x3c, 0x31, 0x4a, 0xca, 0x3d, 0x6e, 0x82, 0xa9, 0x3b, 0x43, 0xbe, 0x3c, 0xbe, 0x91, 0x68, 0x00, 0xbe, 0x24, 0x97, 0x92, 0xbd, 0xeb, 0x2b, 0x37, 0xbe, 0x76, 0xa6, 0x8c, 0xbe, 0x17, 0xd8, 0xf9, 0xbd, 0x9e, 0x2a, 0x8b, 0x3d, 0x61, 0xa7, 0x8b, 0x3e, 0x48, 0x83, 0x91, 0x3e, 0x0d, 0x63, 0xa1, 0xbd, 0x89, 0xf2, 0x20, 0xbe, 0x7c, 0x39, 0x96, 0xbe, 0xbe, 0xd0, 0x23, 0x3e, 0x00, 0xd7, 0x72, 0x3e, 0x58, 0xf0, 0x85, 0x3e, 0x04, 0x20, 0x3b, 0xbe, 0xa3, 0x33, 0x35, 0xbe, 0x06, 0x25, 0x8f, 0xbe, 0x42, 0x0d, 0x90, 0xbd, 0x11, 0x93, 0x64, 0x3e, 0xff, 0x9d, 0x10, 0x3e, 0x18, 0xf0, 0xe0, 0xbd, 0x1d, 0xab, 0x33, 0xbd, 0x2c, 0x11, 0x97, 0x3d, 0x4e, 0xa8, 0x80, 0x3e, 0x43, 0xd8, 0x86, 0x3d, 0xdb, 0x07, 0xbf, 0xbc, 0xa1, 0x16, 0x4e, 0x3e, 0xb2, 0x41, 0xea, 0xbd, 0xc8, 0x03, 0xae, 0x3d, 0x3a, 0x3c, 0x34, 0x3e, 0x12, 0xc3, 0x8a, 0x3e, 0xea, 0xb2, 0x6e, 0xbe, 0x3e, 0xc2, 0x14, 0xbe, 0x19, 0x74, 0x27, 0xbd, 0x6f, 0x0c, 0x16, 0xbe, 0x2e, 0x0b, 0xb9, 0xbd, 0xce, 0xb3, 0x7b, 0xbe, 0x94, 0x13, 0x66, 0x3e, 0x22, 0x1b, 0x41, 0xbe, 0x0d, 0x80, 0x27, 0xbe, 0xe2, 0x67, 0x6d, 0xbd, 0x2b, 0x42, 0x73, 0x3e, 0xb0, 0x6a, 0xe6, 0x3e, 0xf4, 0x26, 0x54, 0x3e, 0x3a, 0xb7, 0xb5, 0xbd, 0xf7, 0xa7, 0xd0, 0x3c, 0x61, 0x42, 0xa7, 0x3e, 0xec, 0x4a, 0xc4, 0xbe, 0x5f, 0xbb, 0x2c, 0x3e, 0xbe, 0x58, 0xd4, 0x3e, 0x95, 0x1d, 0x4c, 0x3e, 0x57, 0xac, 0x11, 0xbe, 0xe2, 0xca, 0xce, 0xbd, 0x2c, 0xf6, 0x2c, 0xbe, 0xd8, 0xf9, 0x3b, 0x3e, 0xfe, 0x07, 0x99, 0x3c, 0x80, 0x6a, 0x2c, 0x3e, 0x08, 0x47, 0xf3, 0x3d, 0x48, 0xc5, 0xd1, 0xbe, 0x57, 0xc3, 0x76, 0x3e, 0xc5, 0x01, 0xdf, 0xbd, 0x0d, 0x45, 0x44, 0x3d, 0x5c, 0x73, 0x26, 0xbe, 0x4e, 0xa6, 0x28, 0x3e, 0xa3, 0x85, 0x95, 0x3e, 0x0f, 0x43, 0x73, 0xbe, 0x34, 0x40, 0x7b, 0xbe, 0xe5, 0x31, 0xcf, 0x3e, 0xdd, 0x15, 0x4d, 0x3e, 0x85, 0xbd, 0xe9, 0xbd, 0x84, 0x89, 0xf8, 0xbd, 0x7f, 0xb8, 0x43, 0xbd, 0x62, 0x23, 0x50, 0xbe, 0x9f, 0x52, 0xe1, 0x3e, 0x5f, 0xb8, 0x8a, 0x3e, 0x7a, 0x52, 0x84, 0x3d, 0x3c, 0x07, 0x74, 0x3d, 0x26, 0x98, 0x9b, 0x3d, 0x08, 0x17, 0x6d, 0xbe, 0x94, 0xe5, 0x3e, 0xbe, 0x68, 0x50, 0x5c, 0x3e, 0x66, 0xca, 0x80, 0x3e, 0x20, 0xf5, 0x72, 0x3d, 0x64, 0x89, 0x0a, 0xbe, 0x30, 0x24, 0xe6, 0xbc, 0xd8, 0xb9, 0x11, 0x3d, 0xb3, 0x72, 0x4e, 0xbe, 0x60, 0xb6, 0x35, 0x3e, 0x8c, 0xfc, 0xaf, 0xbd, 0x22, 0x20, 0x07, 0x3e, 0x14, 0xcc, 0x3b, 0xbe, 0xd1, 0xf9, 0x18, 0xbe, 0xca, 0x95, 0x8d, 0x3e, 0xfe, 0x41, 0x12, 0xbe, 0x2e, 0x90, 0x8e, 0x3e, 0xf0, 0x40, 0xdf, 0xbc, 0xda, 0x2c, 0x8e, 0xbe, 0x4c, 0xb1, 0x6f, 0x3e, 0xd8, 0x20, 0xe5, 0x3d, 0x3e, 0xa1, 0x03, 0x3e, 0xe8, 0x46, 0x35, 0xbe, 0x3e, 0xd3, 0x58, 0xbe, 0xfd, 0xe4, 0x58, 0xbe, 0x12, 0x87, 0x86, 0x3e, 0xf1, 0x16, 0x7f, 0xbe, 0x4a, 0x86, 0x2f, 0xbe, 0xf4, 0x7e, 0xaa, 0x3d, 0x81, 0x56, 0x1e, 0xbe, 0x00, 0x9d, 0x76, 0xbd, 0x78, 0x77, 0x3b, 0xbe, 0x98, 0x61, 0x2c, 0xbd, 0xd0, 0x69, 0x92, 0x3d, 0xcd, 0x2a, 0x82, 0xbe, 0xc0, 0x4a, 0x8e, 0x3c, 0x00, 0x65, 0x43, 0x3d, 0xa8, 0x76, 0x46, 0x3d, 0xd6, 0x58, 0x69, 0xbe, 0xf0, 0x99, 0xdd, 0x3d, 0xc8, 0xc6, 0xe0, 0xbd, 0x30, 0xc8, 0x18, 0x3d, 0x00, 0x24, 0x96, 0x3b, 0x52, 0xf0, 0x30, 0x3e, 0x14, 0x0b, 0xb0, 0x3d, 0x90, 0x0a, 0x85, 0x3d, 0x3d, 0x84, 0x4b, 0xbe, 0xf8, 0x37, 0x30, 0x3d, 0xb0, 0xcb, 0x08, 0xbd, 0x48, 0xda, 0x82, 0x3e, 0x68, 0x95, 0x3c, 0xbd, 0xeb, 0xb9, 0x84, 0xbe, 0xa0, 0xa8, 0xea, 0x3c, 0xa0, 0x75, 0x5b, 0x3d, 0x38, 0x92, 0xa9, 0xbd, 0x0e, 0xaa, 0x90, 0xbe, 0x00, 0x00, 0x06, 0x00, 0x08, 0x00, 0x04, 0x00, 0x06, 0x00, 0x00, 0x00, 0x04, 0x00, 0x00, 0x00, 0x50, 0x00, 0x00, 0x00, 0x40, 0x7c, 0x92, 0xbc, 0xcb, 0xaf, 0x65, 0xbe, 0xde, 0xa0, 0x92, 0xbe, 0x54, 0x25, 0x60, 0x3e, 0x0f, 0x39, 0xfa, 0xbe, 0x90, 0x68, 0xb5, 0xbe, 0x07, 0x48, 0x15, 0x3f, 0x36, 0x8d, 0xd7, 0xbe, 0x65, 0x02, 0x38, 0xbe, 0xfc, 0xd7, 0x27, 0x3f, 0xe9, 0xeb, 0x7b, 0xbe, 0x8e, 0x16, 0x51, 0xbe, 0xe6, 0x50, 0xad, 0x3d, 0xab, 0x5a, 0x98, 0x3e, 0x5f, 0xee, 0xb6, 0x3e, 0x98, 0xaf, 0xa5, 0xbe, 0x40, 0x05, 0x20, 0xbc, 0xe4, 0xe6, 0xd6, 0xbe, 0xbc, 0x86, 0x63, 0x3e, 0xe0, 0x43, 0xa2, 0xbc, 0x28, 0xfb, 0xff, 0xff, 0x2c, 0xfb, 0xff, 0xff, 0x0f, 0x00, 0x00, 0x00, 0x4d, 0x4c, 0x49, 0x52, 0x20, 0x43, 0x6f, 0x6e, 0x76, 0x65, 0x72, 0x74, 0x65, 0x64, 0x2e, 0x00, 0x01, 0x00, 0x00, 0x00, 0x14, 0x00, 0x00, 0x00, 0x00, 0x00, 0x0e, 0x00, 0x18, 0x00, 0x14, 0x00, 0x10, 0x00, 0x0c, 0x00, 0x08, 0x00, 0x04, 0x00, 0x0e, 0x00, 0x00, 0x00, 0x14, 0x00, 0x00, 0x00, 0x1c, 0x00, 0x00, 0x00, 0xd8, 0x00, 0x00, 0x00, 0xdc, 0x00, 0x00, 0x00, 0xe0, 0x00, 0x00, 0x00, 0x04, 0x00, 0x00, 0x00, 0x6d, 0x61, 0x69, 0x6e, 0x00, 0x00, 0x00, 0x00, 0x03, 0x00, 0x00, 0x00, 0x80, 0x00, 0x00, 0x00, 0x38, 0x00, 0x00, 0x00, 0x04, 0x00, 0x00, 0x00, 0x9a, 0xff, 0xff, 0xff, 0x10, 0x00, 0x00, 0x00, 0x00, 0x00, 0x00, 0x08, 0x0c, 0x00, 0x00, 0x00, 0x10, 0x00, 0x00, 0x00, 0xa4, 0xfb, 0xff, 0xff, 0x01, 0x00, 0x00, 0x00, 0x09, 0x00, 0x00, 0x00, 0x03, 0x00, 0x00, 0x00, 0x08, 0x00, 0x00, 0x00, 0x01, 0x00, 0x00, 0x00, 0x03, 0x00, 0x00, 0x00, 0xca, 0xff, 0xff, 0xff, 0x10, 0x00, 0x00, 0x00, 0x00, 0x00, 0x00, 0x08, 0x10, 0x00, 0x00, 0x00, 0x14, 0x00, 0x00, 0x00, 0xba, 0xff, 0xff, 0xff, 0x00, 0x00, 0x00, 0x01, 0x01, 0x00, 0x00, 0x00, 0x08, 0x00, 0x00, 0x00, 0x03, 0x00, 0x00, 0x00, 0x07, 0x00, 0x00, 0x00, 0x02, 0x00, 0x00, 0x00, 0x04, 0x00, 0x00, 0x00, 0x00, 0x00, 0x0e, 0x00, 0x16, 0x00, 0x00, 0x00, 0x10, 0x00, 0x0c, 0x00, 0x0b, 0x00, 0x04, 0x00, 0x0e, 0x00, 0x00, 0x00, 0x18, 0x00, 0x00, 0x00, 0x00, 0x00, 0x00, 0x08, 0x18, 0x00, 0x00, 0x00, 0x1c, 0x00, 0x00, 0x00, 0x00, 0x00, 0x06, 0x00, 0x08, 0x00, 0x07, 0x00, 0x06, 0x00, 0x00, 0x00, 0x00, 0x00, 0x00, 0x01, 0x01, 0x00, 0x00, 0x00, 0x07, 0x00, 0x00, 0x00, 0x03, 0x00, 0x00, 0x00, 0x00, 0x00, 0x00, 0x00, 0x06, 0x00, 0x00, 0x00, 0x05, 0x00, 0x00, 0x00, 0x01, 0x00, 0x00, 0x00, 0x09, 0x00, 0x00, 0x00, 0x01, 0x00, 0x00, 0x00, 0x00, 0x00, 0x00, 0x00, 0x0a, 0x00, 0x00, 0x00, 0x84, 0x03, 0x00, 0x00, 0x2c, 0x03, 0x00, 0x00, 0xd4, 0x02, 0x00, 0x00, 0x98, 0x02, 0x00, 0x00, 0x5c, 0x02, 0x00, 0x00, 0xfc, 0x01, 0x00, 0x00, 0xa8, 0x01, 0x00, 0x00, 0x04, 0x01, 0x00, 0x00, 0x60, 0x00, 0x00, 0x00, 0x04, 0x00, 0x00, 0x00, 0xba, 0xfc, 0xff, 0xff, 0x00, 0x00, 0x00, 0x01, 0x14, 0x00, 0x00, 0x00, 0x1c, 0x00, 0x00, 0x00, 0x1c, 0x00, 0x00, 0x00, 0x0a, 0x00, 0x00, 0x00, 0x34, 0x00, 0x00, 0x00, 0x02, 0x00, 0x00, 0x00, 0xff, 0xff, 0xff, 0xff, 0x01, 0x00, 0x00, 0x00, 0xa4, 0xfc, 0xff, 0xff, 0x1b, 0x00, 0x00, 0x00, 0x53, 0x74, 0x61, 0x74, 0x65, 0x66, 0x75, 0x6c, 0x50, 0x61, 0x72, 0x74, 0x69, 0x74, 0x69, 0x6f, 0x6e, 0x65, 0x64, 0x43, 0x61, 0x6c, 0x6c, 0x5f, 0x31, 0x3a, 0x30, 0x00, 0x02, 0x00, 0x00, 0x00, 0x01, 0x00, 0x00, 0x00, 0x01, 0x00, 0x00, 0x00, 0x12, 0xfd, 0xff, 0xff, 0x00, 0x00, 0x00, 0x01, 0x14, 0x00, 0x00, 0x00, 0x1c, 0x00, 0x00, 0x00, 0x1c, 0x00, 0x00, 0x00, 0x09, 0x00, 0x00, 0x00, 0x7c, 0x00, 0x00, 0x00, 0x02, 0x00, 0x00, 0x00, 0xff, 0xff, 0xff, 0xff, 0x14, 0x00, 0x00, 0x00, 0xfc, 0xfc, 0xff, 0xff, 0x61, 0x00, 0x00, 0x00, 0x73, 0x65, 0x71, 0x75, 0x65, 0x6e, 0x74, 0x69, 0x61, 0x6c, 0x5f, 0x34, 0x5f, 0x31, 0x2f, 0x64, 0x65, 0x6e, 0x73, 0x65, 0x5f, 0x31, 0x33, 0x5f, 0x31, 0x2f, 0x4d, 0x61, 0x74, 0x4d, 0x75, 0x6c, 0x3b, 0x73, 0x65, 0x71, 0x75, 0x65, 0x6e, 0x74, 0x69, 0x61, 0x6c, 0x5f, 0x34, 0x5f, 0x31, 0x2f, 0x64, 0x65, 0x6e, 0x73, 0x65, 0x5f, 0x31, 0x33, 0x5f, 0x31, 0x2f, 0x52, 0x65, 0x6c, 0x75, 0x3b, 0x73, 0x65, 0x71, 0x75, 0x65, 0x6e, 0x74, 0x69, 0x61, 0x6c, 0x5f, 0x34, 0x5f, 0x31, 0x2f, 0x64, 0x65, 0x6e, 0x73, 0x65, 0x5f, 0x31, 0x33, 0x5f, 0x31, 0x2f, 0x42, 0x69, 0x61, 0x73, 0x41, 0x64, 0x64, 0x00, 0x00, 0x00, 0x02, 0x00, 0x00, 0x00, 0x01, 0x00, 0x00, 0x00, 0x14, 0x00, 0x00, 0x00, 0xb2, 0xfd, 0xff, 0xff, 0x00, 0x00, 0x00, 0x01, 0x14, 0x00, 0x00, 0x00, 0x1c, 0x00, 0x00, 0x00, 0x1c, 0x00, 0x00, 0x00, 0x08, 0x00, 0x00, 0x00, 0x7c, 0x00, 0x00, 0x00, 0x02, 0x00, 0x00, 0x00, 0xff, 0xff, 0xff, 0xff, 0x32, 0x00, 0x00, 0x00, 0x9c, 0xfd, 0xff, 0xff, 0x61, 0x00, 0x00, 0x00, 0x73, 0x65, 0x71, 0x75, 0x65, 0x6e, 0x74, 0x69, 0x61, 0x6c, 0x5f, 0x34, 0x5f, 0x31, 0x2f, 0x64, 0x65, 0x6e, 0x73, 0x65, 0x5f, 0x31, 0x32, 0x5f, 0x31, 0x2f, 0x4d, 0x61, 0x74, 0x4d, 0x75, 0x6c, 0x3b, 0x73, 0x65, 0x71, 0x75, 0x65, 0x6e, 0x74, 0x69, 0x61, 0x6c, 0x5f, 0x34, 0x5f, 0x31, 0x2f, 0x64, 0x65, 0x6e, 0x73, 0x65, 0x5f, 0x31, 0x32, 0x5f, 0x31, 0x2f, 0x52, 0x65, 0x6c, 0x75, 0x3b, 0x73, 0x65, 0x71, 0x75, 0x65, 0x6e, 0x74, 0x69, 0x61, 0x6c, 0x5f, 0x34, 0x5f, 0x31, 0x2f, 0x64, 0x65, 0x6e, 0x73, 0x65, 0x5f, 0x31, 0x32, 0x5f, 0x31, 0x2f, 0x42, 0x69, 0x61, 0x73, 0x41, 0x64, 0x64, 0x00, 0x00, 0x00, 0x02, 0x00, 0x00, 0x00, 0x01, 0x00, 0x00, 0x00, 0x32, 0x00, 0x00, 0x00, 0xa6, 0xfe, 0xff, 0xff, 0x00, 0x00, 0x00, 0x01, 0x10, 0x00, 0x00, 0x00, 0x10, 0x00, 0x00, 0x00, 0x07, 0x00, 0x00, 0x00, 0x30, 0x00, 0x00, 0x00, 0x2c, 0xfe, 0xff, 0xff, 0x20, 0x00, 0x00, 0x00, 0x73, 0x65, 0x71, 0x75, 0x65, 0x6e, 0x74, 0x69, 0x61, 0x6c, 0x5f, 0x34, 0x5f, 0x31, 0x2f, 0x64, 0x65, 0x6e, 0x73, 0x65, 0x5f, 0x31, 0x32, 0x5f, 0x31, 0x2f, 0x4d, 0x61, 0x74, 0x4d, 0x75, 0x6c, 0x00, 0x00, 0x00, 0x00, 0x02, 0x00, 0x00, 0x00, 0x32, 0x00, 0x00, 0x00, 0x07, 0x00, 0x00, 0x00, 0xf6, 0xfe, 0xff, 0xff, 0x00, 0x00, 0x00, 0x01, 0x10, 0x00, 0x00, 0x00, 0x10, 0x00, 0x00, 0x00, 0x06, 0x00, 0x00, 0x00, 0x40, 0x00, 0x00, 0x00, 0x7c, 0xfe, 0xff, 0xff, 0x30, 0x00, 0x00, 0x00, 0x73, 0x65, 0x71, 0x75, 0x65, 0x6e, 0x74, 0x69, 0x61, 0x6c, 0x5f, 0x34, 0x5f, 0x31, 0x2f, 0x64, 0x65, 0x6e, 0x73, 0x65, 0x5f, 0x31, 0x32, 0x5f, 0x31, 0x2f, 0x42, 0x69, 0x61, 0x73, 0x41, 0x64, 0x64, 0x2f, 0x52, 0x65, 0x61, 0x64, 0x56, 0x61, 0x72, 0x69, 0x61, 0x62, 0x6c, 0x65, 0x4f, 0x70, 0x00, 0x00, 0x00, 0x00, 0x01, 0x00, 0x00, 0x00, 0x32, 0x00, 0x00, 0x00, 0x52, 0xff, 0xff, 0xff, 0x00, 0x00, 0x00, 0x01, 0x10, 0x00, 0x00, 0x00, 0x10, 0x00, 0x00, 0x00, 0x05, 0x00, 0x00, 0x00, 0x1c, 0x00, 0x00, 0x00, 0xd8, 0xfe, 0xff, 0xff, 0x0f, 0x00, 0x00, 0x00, 0x61, 0x72, 0x69, 0x74, 0x68, 0x2e, 0x63, 0x6f, 0x6e, 0x73, 0x74, 0x61, 0x6e, 0x74, 0x33, 0x00, 0x01, 0x00, 0x00, 0x00, 0x14, 0x00, 0x00, 0x00, 0x8a, 0xff, 0xff, 0xff, 0x00, 0x00, 0x00, 0x01, 0x10, 0x00, 0x00, 0x00, 0x10, 0x00, 0x00, 0x00, 0x04, 0x00, 0x00, 0x00, 0x1c, 0x00, 0x00, 0x00, 0x10, 0xff, 0xff, 0xff, 0x0f, 0x00, 0x00, 0x00, 0x61, 0x72, 0x69, 0x74, 0x68, 0x2e, 0x63, 0x6f, 0x6e, 0x73, 0x74, 0x61, 0x6e, 0x74, 0x32, 0x00, 0x01, 0x00, 0x00, 0x00, 0x01, 0x00, 0x00, 0x00, 0xc2, 0xff, 0xff, 0xff, 0x00, 0x00, 0x00, 0x01, 0x10, 0x00, 0x00, 0x00, 0x10, 0x00, 0x00, 0x00, 0x03, 0x00, 0x00, 0x00, 0x1c, 0x00, 0x00, 0x00, 0x48, 0xff, 0xff, 0xff, 0x0f, 0x00, 0x00, 0x00, 0x61, 0x72, 0x69, 0x74, 0x68, 0x2e, 0x63, 0x6f, 0x6e, 0x73, 0x74, 0x61, 0x6e, 0x74, 0x31, 0x00, 0x02, 0x00, 0x00, 0x00, 0x14, 0x00, 0x00, 0x00, 0x32, 0x00, 0x00, 0x00, 0x00, 0x00, 0x16, 0x00, 0x18, 0x00, 0x14, 0x00, 0x00, 0x00, 0x10, 0x00, 0x0c, 0x00, 0x08, 0x00, 0x00, 0x00, 0x00, 0x00, 0x00, 0x00, 0x07, 0x00, 0x16, 0x00, 0x00, 0x00, 0x00, 0x00, 0x00, 0x01, 0x10, 0x00, 0x00, 0x00, 0x10, 0x00, 0x00, 0x00, 0x02, 0x00, 0x00, 0x00, 0x1c, 0x00, 0x00, 0x00, 0x9c, 0xff, 0xff, 0xff, 0x0e, 0x00, 0x00, 0x00, 0x61, 0x72, 0x69, 0x74, 0x68, 0x2e, 0x63, 0x6f, 0x6e, 0x73, 0x74, 0x61, 0x6e, 0x74, 0x00, 0x00, 0x02, 0x00, 0x00, 0x00, 0x01, 0x00, 0x00, 0x00, 0x14, 0x00, 0x00, 0x00, 0x00, 0x00, 0x16, 0x00, 0x1c, 0x00, 0x18, 0x00, 0x00, 0x00, 0x14, 0x00, 0x10, 0x00, 0x0c, 0x00, 0x00, 0x00, 0x00, 0x00, 0x08, 0x00, 0x07, 0x00, 0x16, 0x00, 0x00, 0x00, 0x00, 0x00, 0x00, 0x01, 0x14, 0x00, 0x00, 0x00, 0x20, 0x00, 0x00, 0x00, 0x20, 0x00, 0x00, 0x00, 0x01, 0x00, 0x00, 0x00, 0x40, 0x00, 0x00, 0x00, 0x02, 0x00, 0x00, 0x00, 0xff, 0xff, 0xff, 0xff, 0x07, 0x00, 0x00, 0x00, 0x04, 0x00, 0x04, 0x00, 0x04, 0x00, 0x00, 0x00, 0x21, 0x00, 0x00, 0x00, 0x73, 0x65, 0x72, 0x76, 0x69, 0x6e, 0x67, 0x5f, 0x64, 0x65, 0x66, 0x61, 0x75, 0x6c, 0x74, 0x5f, 0x6b, 0x65, 0x72, 0x61, 0x73, 0x5f, 0x74, 0x65, 0x6e, 0x73, 0x6f, 0x72, 0x5f, 0x32, 0x38, 0x3a, 0x30, 0x00, 0x00, 0x00, 0x02, 0x00, 0x00, 0x00, 0x01, 0x00, 0x00, 0x00, 0x07, 0x00, 0x00, 0x00, 0x01, 0x00, 0x00, 0x00, 0x10, 0x00, 0x00, 0x00, 0x0c, 0x00, 0x0c, 0x00, 0x0b, 0x00, 0x00, 0x00, 0x00, 0x00, 0x04, 0x00, 0x0c, 0x00, 0x00, 0x00, 0x09, 0x00, 0x00, 0x00, 0x00, 0x00, 0x00, 0x09 };